/* Copyright 2018 The TensorFlow Authors. All Rights Reserved.

Licensed under the Apache License, Version 2.0 (the "License");
you may not use this file except in compliance with the License.
You may obtain a copy of the License at

    http://www.apache.org/licenses/LICENSE-2.0

Unless required by applicable law or agreed to in writing, software
distributed under the License is distributed on an "AS IS" BASIS,
WITHOUT WARRANTIES OR CONDITIONS OF ANY KIND, either express or implied.
See the License for the specific language governing permissions and
limitations under the License.
==============================================================================*/

// Automatically created from a TensorFlow Lite flatbuffer using the command:
// xxd -i tiny_conv.tflite > tiny_conv_simple_features_model_data.cc
// See the README for a full description of the creation process.

#include "micro_features_tiny_conv_micro_features_model_data.h"

// We need to keep the data array aligned on some architectures.
#ifdef __has_attribute
#define HAVE_ATTRIBUTE(x) __has_attribute(x)
#else
#define HAVE_ATTRIBUTE(x) 0
#endif
#if HAVE_ATTRIBUTE(aligned) || (defined(__GNUC__) && !defined(__clang__))
#define DATA_ALIGN_ATTRIBUTE __attribute__((aligned(4)))
#else
#define DATA_ALIGN_ATTRIBUTE
#endif

const unsigned char
    g_tiny_conv_micro_features_model_data[] DATA_ALIGN_ATTRIBUTE = {
  0x1c, 0x00, 0x00, 0x00, 0x54, 0x46, 0x4c, 0x33, 0x00, 0x00, 0x12, 0x00,
  0x1c, 0x00, 0x04, 0x00, 0x08, 0x00, 0x0c, 0x00, 0x10, 0x00, 0x14, 0x00,
  0x00, 0x00, 0x18, 0x00, 0x12, 0x00, 0x00, 0x00, 0x03, 0x00, 0x00, 0x00,
  0x74, 0x37, 0x00, 0x00, 0x10, 0x00, 0x00, 0x00, 0x1c, 0x00, 0x00, 0x00,
  0x2c, 0x00, 0x00, 0x00, 0x0c, 0x00, 0x00, 0x00, 0x01, 0x00, 0x00, 0x00,
  0xc0, 0x00, 0x00, 0x00, 0x01, 0x00, 0x00, 0x00, 0x94, 0x00, 0x00, 0x00,
  0x0f, 0x00, 0x00, 0x00, 0x54, 0x4f, 0x43, 0x4f, 0x20, 0x43, 0x6f, 0x6e,
  0x76, 0x65, 0x72, 0x74, 0x65, 0x64, 0x2e, 0x00, 0x0a, 0x00, 0x00, 0x00,
  0x60, 0x00, 0x00, 0x00, 0x54, 0x00, 0x00, 0x00, 0x48, 0x00, 0x00, 0x00,
  0x40, 0x00, 0x00, 0x00, 0x38, 0x00, 0x00, 0x00, 0x30, 0x00, 0x00, 0x00,
  0x24, 0x00, 0x00, 0x00, 0x1c, 0x00, 0x00, 0x00, 0x10, 0x00, 0x00, 0x00,
  0x04, 0x00, 0x00, 0x00, 0xb6, 0xc9, 0xff, 0xff, 0x38, 0x00, 0x00, 0x00,
  0xbe, 0xc9, 0xff, 0xff, 0x48, 0x01, 0x00, 0x00, 0x6c, 0xc9, 0xff, 0xff,
  0xca, 0xc9, 0xff, 0xff, 0x20, 0x31, 0x00, 0x00, 0x78, 0xc9, 0xff, 0xff,
  0x7c, 0xc9, 0xff, 0xff, 0x80, 0xc9, 0xff, 0xff, 0xde, 0xc9, 0xff, 0xff,
  0x3c, 0x35, 0x00, 0x00, 0xe6, 0xc9, 0xff, 0xff, 0xc4, 0x35, 0x00, 0x00,
  0x94, 0xc9, 0xff, 0xff, 0x05, 0x00, 0x00, 0x00, 0x31, 0x2e, 0x35, 0x2e,
  0x30, 0x00, 0x00, 0x00, 0x08, 0x00, 0x0c, 0x00, 0x04, 0x00, 0x08, 0x00,
  0x08, 0x00, 0x00, 0x00, 0x08, 0x00, 0x00, 0x00, 0x09, 0x00, 0x00, 0x00,
  0x13, 0x00, 0x00, 0x00, 0x6d, 0x69, 0x6e, 0x5f, 0x72, 0x75, 0x6e, 0x74,
  0x69, 0x6d, 0x65, 0x5f, 0x76, 0x65, 0x72, 0x73, 0x69, 0x6f, 0x6e, 0x00,
  0xa0, 0xcb, 0xff, 0xff, 0x20, 0x00, 0x00, 0x00, 0x14, 0x00, 0x00, 0x00,
  0x08, 0x00, 0x00, 0x00, 0x84, 0x35, 0x00, 0x00, 0x01, 0x00, 0x00, 0x00,
  0x05, 0x00, 0x00, 0x00, 0x01, 0x00, 0x00, 0x00, 0x03, 0x00, 0x00, 0x00,
  0x08, 0x00, 0x00, 0x00, 0x7c, 0x34, 0x00, 0x00, 0xfc, 0x34, 0x00, 0x00,
  0x94, 0x2f, 0x00, 0x00, 0x14, 0x33, 0x00, 0x00, 0x84, 0x33, 0x00, 0x00,
  0xec, 0x33, 0x00, 0x00, 0xf4, 0x2f, 0x00, 0x00, 0x04, 0x00, 0x00, 0x00,
  0x2e, 0xcb, 0xff, 0xff, 0x00, 0x00, 0x00, 0x03, 0x10, 0x00, 0x00, 0x00,
  0x08, 0x00, 0x00, 0x00, 0x14, 0x00, 0x00, 0x00, 0x48, 0x00, 0x00, 0x00,
  0x02, 0x00, 0x00, 0x00, 0x03, 0x00, 0x00, 0x00, 0xa0, 0x0f, 0x00, 0x00,
  0x31, 0x00, 0x00, 0x00, 0x77, 0x65, 0x69, 0x67, 0x68, 0x74, 0x73, 0x5f,
  0x71, 0x75, 0x61, 0x6e, 0x74, 0x5f, 0x31, 0x2f, 0x46, 0x61, 0x6b, 0x65,
  0x51, 0x75, 0x61, 0x6e, 0x74, 0x57, 0x69, 0x74, 0x68, 0x4d, 0x69, 0x6e,
  0x4d, 0x61, 0x78, 0x56, 0x61, 0x72, 0x73, 0x2f, 0x74, 0x72, 0x61, 0x6e,
  0x73, 0x70, 0x6f, 0x73, 0x65, 0x00, 0x00, 0x00, 0x44, 0xcc, 0xff, 0xff,
  0x30, 0x00, 0x00, 0x00, 0x24, 0x00, 0x00, 0x00, 0x18, 0x00, 0x00, 0x00,
  0x04, 0x00, 0x00, 0x00, 0x01, 0x00, 0x00, 0x00, 0x82, 0x00, 0x00, 0x00,
  0x00, 0x00, 0x00, 0x00, 0x00, 0x00, 0x00, 0x00, 0x01, 0x00, 0x00, 0x00,
  0xb0, 0xfb, 0xb1, 0x39, 0x01, 0x00, 0x00, 0x00, 0x80, 0xe9, 0x2d, 0x3d,
  0x01, 0x00, 0x00, 0x00, 0xf1, 0x45, 0x33, 0xbd, 0xe0, 0x2e, 0x00, 0x00,
  0x6c, 0x83, 0x67, 0xa0, 0x47, 0x85, 0x99, 0x5b, 0x8a, 0x86, 0x8c, 0x86,
  0xa9, 0x64, 0x98, 0x6e, 0x8a, 0xb1, 0xff, 0x4f, 0xff, 0x65, 0x96, 0xa8,
  0x64, 0x4f, 0x78, 0x8c, 0x7c, 0x4b, 0x97, 0x71, 0x85, 0xa4, 0x62, 0x55,
  0x87, 0x72, 0x87, 0x58, 0x6e, 0x66, 0x85, 0x5e, 0x76, 0x7f, 0x8b, 0x99,
  0x92, 0x88, 0x99, 0x72, 0x6d, 0x98, 0x62, 0x8c, 0x72, 0x5a, 0xa6, 0x66,
  0x5d, 0x63, 0x64, 0x9a, 0x4d, 0x51, 0xb5, 0x90, 0x7e, 0x6b, 0x82, 0x72,
  0x9b, 0x94, 0x9e, 0x7f, 0x9d, 0x77, 0x72, 0x95, 0x8e, 0x96, 0x8b, 0xaa,
  0xa7, 0x72, 0x94, 0x76, 0x8c, 0xab, 0x7b, 0x54, 0x96, 0x8e, 0x7f, 0x93,
  0x83, 0x62, 0xb5, 0x74, 0x86, 0x79, 0x8c, 0xa1, 0x8b, 0x5c, 0xa4, 0x68,
  0x95, 0x68, 0x89, 0x6c, 0x9c, 0x71, 0x87, 0x58, 0x9f, 0x9b, 0x65, 0x74,
  0x76, 0x5b, 0xa4, 0x89, 0x90, 0x91, 0x76, 0x95, 0x57, 0x7e, 0xaf, 0x96,
  0x78, 0x9a, 0x95, 0x7f, 0x50, 0x7f, 0xf6, 0x9c, 0xad, 0x74, 0x8b, 0x8c,
  0x7f, 0x71, 0x99, 0xae, 0x92, 0x8e, 0x59, 0x95, 0x96, 0x7b, 0x8f, 0x4d,
  0x9e, 0x74, 0x5a, 0xaf, 0x6b, 0x70, 0x88, 0x79, 0xad, 0x91, 0x89, 0x7f,
  0x9d, 0xa8, 0xa8, 0x93, 0x70, 0x9b, 0x70, 0x5d, 0x8a, 0x80, 0xb0, 0x62,
  0xee, 0x8f, 0x9d, 0x8b, 0x81, 0x6a, 0x57, 0x6d, 0x8c, 0x8b, 0x7f, 0x72,
  0x82, 0xa0, 0x60, 0x8b, 0x7c, 0x74, 0x88, 0x93, 0x71, 0xaf, 0x65, 0x6c,
  0x70, 0x88, 0x87, 0x84, 0x84, 0x7a, 0x93, 0x8b, 0x77, 0x89, 0x8d, 0x71,
  0xa3, 0x78, 0x6b, 0x9c, 0x6d, 0x78, 0x7f, 0x7d, 0x79, 0x8c, 0x95, 0xa6,
  0x7c, 0x8b, 0x97, 0x75, 0x85, 0x9d, 0x99, 0x95, 0xa2, 0x8e, 0x8b, 0x70,
  0xb1, 0x64, 0x7a, 0x7e, 0xbc, 0x96, 0x73, 0x5d, 0x5a, 0xac, 0x83, 0x74,
  0x9a, 0x79, 0x95, 0x87, 0x89, 0x9f, 0x92, 0xa3, 0x7d, 0x9e, 0xa3, 0x6e,
  0x7a, 0xac, 0x72, 0xa9, 0x5b, 0x9e, 0xa7, 0x75, 0x8e, 0x85, 0x8d, 0x66,
  0x7c, 0xaa, 0x83, 0x99, 0x99, 0x87, 0x72, 0xa0, 0x81, 0xb9, 0x97, 0x72,
  0x9e, 0x82, 0xa0, 0xab, 0x84, 0x87, 0x6d, 0x77, 0x5d, 0x9a, 0xb7, 0x9c,
  0xc2, 0xa6, 0x9f, 0x5d, 0x83, 0x5a, 0x76, 0xaa, 0x8e, 0x79, 0x60, 0x61,
  0x93, 0xa1, 0xab, 0x58, 0xa1, 0x9d, 0x5b, 0x76, 0x72, 0x92, 0x65, 0xa1,
  0x6b, 0x52, 0x67, 0x6c, 0x74, 0x85, 0x95, 0x55, 0x8f, 0x34, 0x74, 0x83,
  0x5e, 0x85, 0x82, 0x7f, 0x83, 0x46, 0x71, 0xb1, 0x83, 0x8e, 0x46, 0x4d,
  0x48, 0x4c, 0x6a, 0xb1, 0x80, 0x7c, 0x70, 0x69, 0x52, 0x55, 0x6b, 0x67,
  0xa2, 0x8b, 0x62, 0x62, 0x73, 0x70, 0x76, 0x50, 0x5c, 0x77, 0x6b, 0x70,
  0x77, 0x3e, 0x50, 0x79, 0x81, 0x5b, 0x84, 0x6a, 0x6f, 0x8f, 0x67, 0x94,
  0x95, 0x74, 0x63, 0x5e, 0x72, 0x47, 0x61, 0x7b, 0x4d, 0x8f, 0x8a, 0x64,
  0x8e, 0x65, 0x75, 0x6b, 0x7d, 0x8c, 0x9d, 0x98, 0xa3, 0x69, 0xb0, 0xa4,
  0x62, 0x89, 0x9a, 0x94, 0x7f, 0x41, 0x63, 0x93, 0x95, 0x7b, 0x69, 0x9f,
  0x91, 0x42, 0x7a, 0x91, 0x6f, 0x84, 0x74, 0x99, 0x68, 0x2c, 0xaf, 0xa6,
  0xcd, 0x6b, 0x8e, 0x89, 0x65, 0x6e, 0x4c, 0x68, 0x96, 0x81, 0x51, 0x99,
  0x8d, 0x7b, 0x70, 0x6e, 0x60, 0x56, 0x71, 0x9f, 0x84, 0x58, 0x97, 0x6f,
  0x8f, 0x6f, 0x90, 0x7c, 0xa4, 0x5d, 0x87, 0x84, 0xa9, 0x5b, 0x92, 0xb5,
  0x7b, 0x51, 0xb6, 0xa6, 0x6f, 0x98, 0x86, 0xa0, 0x8c, 0x90, 0xb6, 0x80,
  0x79, 0x91, 0x4d, 0xa5, 0x97, 0xc6, 0x84, 0x86, 0x62, 0x5f, 0x9a, 0x69,
  0x85, 0x6b, 0x58, 0x9e, 0x64, 0xad, 0x66, 0x59, 0x98, 0x74, 0x8c, 0x83,
  0x8d, 0xa0, 0x26, 0x49, 0x21, 0x6c, 0x72, 0x6e, 0x75, 0x61, 0x5e, 0x39,
  0x66, 0x5d, 0x7e, 0x8d, 0x3d, 0x8a, 0x2e, 0x67, 0x5a, 0x65, 0x84, 0x78,
  0x6c, 0xa0, 0x67, 0x67, 0x74, 0x60, 0x50, 0xaa, 0x44, 0x90, 0x61, 0x76,
  0x4e, 0x7b, 0x78, 0x5a, 0x67, 0xb2, 0x5e, 0x55, 0x94, 0x67, 0x6a, 0x6b,
  0x81, 0xa1, 0x58, 0x63, 0x7c, 0x84, 0x7c, 0x76, 0x7f, 0xa8, 0x8f, 0x9e,
  0x79, 0x65, 0x75, 0x9e, 0x82, 0x90, 0x69, 0x96, 0x86, 0x94, 0xa6, 0x83,
  0x6b, 0x94, 0x75, 0x97, 0x81, 0x8b, 0x73, 0x72, 0xb0, 0x82, 0x6d, 0x79,
  0x4f, 0x4e, 0x83, 0x8b, 0x7e, 0x8c, 0x61, 0x81, 0x55, 0x6d, 0x6f, 0x81,
  0xa4, 0x8a, 0x62, 0x96, 0x43, 0x94, 0x82, 0x99, 0x81, 0x79, 0x74, 0xab,
  0x82, 0xa3, 0x98, 0x8c, 0xab, 0x81, 0x85, 0xc2, 0x92, 0x75, 0x7f, 0x75,
  0xb1, 0x73, 0x9c, 0x99, 0x9c, 0x87, 0x7c, 0xc6, 0x50, 0x80, 0x94, 0xd2,
  0x88, 0x93, 0xc5, 0x81, 0x72, 0x71, 0xbc, 0x76, 0x91, 0xaf, 0xa1, 0x6b,
  0x87, 0x9e, 0x7c, 0x87, 0xae, 0xb2, 0x48, 0x95, 0x75, 0x76, 0x4b, 0x79,
  0x81, 0xa9, 0x7e, 0x95, 0x58, 0x72, 0x33, 0x8e, 0x3c, 0x91, 0x66, 0x98,
  0x49, 0x75, 0x5e, 0x47, 0x47, 0x84, 0x87, 0x56, 0x6b, 0x46, 0x78, 0x49,
  0x85, 0x74, 0x52, 0x96, 0x56, 0xa1, 0x74, 0x51, 0x70, 0xa2, 0x58, 0x91,
  0x8c, 0x56, 0x4e, 0x60, 0x7c, 0x87, 0x80, 0x9a, 0x92, 0xa3, 0x6d, 0x63,
  0x7a, 0x8e, 0x6f, 0x97, 0x85, 0x90, 0x80, 0x80, 0x72, 0x93, 0x68, 0xa7,
  0xa2, 0x92, 0x91, 0x7b, 0xa9, 0x9a, 0x58, 0x4d, 0x87, 0x4e, 0x8a, 0x7e,
  0x89, 0xab, 0x94, 0x98, 0x80, 0x91, 0x87, 0x78, 0x80, 0x8e, 0x81, 0xa6,
  0x8a, 0x79, 0x77, 0x7f, 0x6d, 0x84, 0x74, 0x8e, 0xa8, 0x5c, 0x79, 0x85,
  0x7e, 0x88, 0x87, 0xa2, 0x98, 0x5f, 0x50, 0x9f, 0x4d, 0xc0, 0x9a, 0xa4,
  0x85, 0x87, 0x85, 0x95, 0x66, 0x8a, 0x87, 0x9c, 0x6c, 0x6e, 0x7f, 0x78,
  0x9c, 0xcb, 0x6c, 0x79, 0x85, 0xa7, 0xa2, 0xc0, 0x7d, 0xd4, 0xc4, 0xc4,
  0x82, 0x9a, 0x82, 0xa0, 0x89, 0xa2, 0xbe, 0x8a, 0x78, 0x48, 0x78, 0x90,
  0x97, 0xc8, 0x8b, 0x81, 0x52, 0x7d, 0x64, 0x86, 0x73, 0x6e, 0x6b, 0x84,
  0x69, 0xa3, 0x58, 0x64, 0x90, 0x79, 0x68, 0x4f, 0x55, 0x38, 0x45, 0x5a,
  0x42, 0x8d, 0x7f, 0x97, 0x5b, 0x90, 0x23, 0x62, 0x4b, 0x70, 0x5f, 0x75,
  0x68, 0x81, 0x66, 0x4a, 0x4a, 0xab, 0x59, 0xb4, 0x73, 0x90, 0x77, 0x85,
  0x70, 0x8f, 0x72, 0x8a, 0x4c, 0x9e, 0x59, 0x4b, 0x45, 0x89, 0x83, 0x8a,
  0x68, 0x71, 0x30, 0x88, 0x66, 0xa8, 0x7b, 0x77, 0x86, 0x75, 0x3f, 0x76,
  0x84, 0x9f, 0x87, 0x67, 0x9f, 0x62, 0x73, 0x7e, 0x87, 0x99, 0x71, 0x71,
  0x92, 0x94, 0x84, 0x8f, 0x6a, 0xc1, 0x9a, 0x7a, 0xae, 0x5d, 0xa1, 0x77,
  0x6a, 0x99, 0xb2, 0x74, 0xa4, 0x75, 0x7e, 0x6a, 0x9e, 0xae, 0x99, 0x77,
  0x9c, 0x7f, 0x78, 0x93, 0x5f, 0x91, 0x79, 0x9a, 0xa3, 0x97, 0x67, 0x88,
  0x61, 0x9e, 0x95, 0xac, 0x8d, 0x42, 0x88, 0x8d, 0x92, 0xa3, 0x61, 0xa5,
  0xa8, 0x96, 0x6b, 0x91, 0x85, 0xc4, 0x99, 0xb4, 0x67, 0x79, 0x90, 0xcc,
  0x7c, 0xaa, 0xab, 0x9c, 0x53, 0x80, 0x8c, 0xa5, 0x95, 0x8e, 0xbc, 0xc7,
  0x87, 0x5b, 0x95, 0x5f, 0x8e, 0xae, 0x6f, 0x9f, 0x6d, 0x8a, 0x69, 0x90,
  0xa0, 0x6c, 0x7f, 0x87, 0x66, 0x97, 0x3f, 0x51, 0x98, 0x98, 0x6b, 0x91,
  0x68, 0x5e, 0x2f, 0x7e, 0x5a, 0x9d, 0x7d, 0x74, 0x3f, 0x64, 0x48, 0x6d,
  0x51, 0x7b, 0x78, 0xba, 0x57, 0x80, 0x6a, 0x4b, 0x70, 0x9f, 0x49, 0x92,
  0x5c, 0x8e, 0x4f, 0x66, 0x6e, 0x98, 0x66, 0x79, 0x4f, 0x8c, 0x58, 0x60,
  0x63, 0xb3, 0xa3, 0x88, 0x59, 0x56, 0x2f, 0x6e, 0x46, 0xc0, 0x63, 0xb3,
  0xa6, 0x86, 0x5a, 0x57, 0x59, 0x9d, 0x96, 0x78, 0xa7, 0x8f, 0x4b, 0x97,
  0x5f, 0xa6, 0x88, 0x8c, 0x81, 0x90, 0x78, 0x99, 0x72, 0xa6, 0x89, 0x8d,
  0x87, 0x7c, 0x88, 0x6f, 0x61, 0xcb, 0x6c, 0xb4, 0xd5, 0x94, 0x57, 0x62,
  0x5e, 0xb6, 0x94, 0x7e, 0xac, 0x67, 0x74, 0xb0, 0x5d, 0xac, 0xb4, 0xa4,
  0x96, 0x4f, 0x3c, 0x88, 0x30, 0x7c, 0x9c, 0x98, 0x72, 0x86, 0x50, 0x96,
  0x92, 0xa4, 0xb6, 0x99, 0x7d, 0x8f, 0x66, 0x78, 0x91, 0xac, 0x73, 0x99,
  0x9a, 0x9c, 0x8a, 0xba, 0x90, 0xab, 0xb0, 0x98, 0x83, 0x93, 0x80, 0xb5,
  0x7d, 0x83, 0xdd, 0x90, 0x9a, 0x77, 0x70, 0x5b, 0x64, 0xb3, 0x86, 0x79,
  0x60, 0xa6, 0x78, 0x4e, 0x9e, 0xb4, 0x44, 0xae, 0x62, 0x7f, 0x62, 0x52,
  0x8c, 0x8f, 0x77, 0x62, 0x4e, 0x8c, 0x5c, 0x74, 0x4e, 0xbb, 0x82, 0x95,
  0x49, 0x82, 0x76, 0x61, 0x7f, 0x94, 0x39, 0x87, 0x72, 0x7a, 0x68, 0x59,
  0x45, 0xb9, 0x7e, 0x83, 0x8a, 0x75, 0x2c, 0x59, 0x87, 0x95, 0x64, 0xc4,
  0x4b, 0xb4, 0x48, 0x9d, 0x4a, 0x95, 0x6a, 0x64, 0x74, 0x69, 0x5d, 0x5c,
  0x54, 0x9f, 0x7e, 0x81, 0x81, 0x89, 0x60, 0x6f, 0x74, 0xaf, 0xaa, 0x95,
  0x97, 0x71, 0x66, 0xac, 0x5f, 0x9f, 0x4a, 0x9c, 0xb4, 0x87, 0x80, 0x9b,
  0x77, 0xa5, 0x7f, 0x98, 0x64, 0x4c, 0x7f, 0x8e, 0x6d, 0x82, 0x84, 0xab,
  0x79, 0x90, 0x88, 0x99, 0x53, 0x7d, 0x9d, 0xad, 0x9e, 0x86, 0x62, 0x75,
  0x6c, 0xb5, 0x72, 0x87, 0x9d, 0x58, 0x4c, 0xa4, 0x2f, 0xaf, 0x6d, 0xbe,
  0xb2, 0x61, 0x7d, 0x8e, 0x59, 0x9b, 0x82, 0xb4, 0x9c, 0x6c, 0x7c, 0xa8,
  0x56, 0x99, 0xa4, 0xac, 0x69, 0x8f, 0x7f, 0xab, 0x86, 0xcf, 0xa7, 0xc6,
  0x84, 0x99, 0xa9, 0x93, 0x7e, 0x76, 0xad, 0x84, 0x9a, 0x77, 0x78, 0x51,
  0x5e, 0xe2, 0x53, 0x72, 0x57, 0x95, 0x43, 0x60, 0xad, 0x90, 0x5d, 0x97,
  0x7f, 0x7c, 0x41, 0x34, 0x5c, 0xa6, 0x6d, 0x87, 0x43, 0x4b, 0x5d, 0x74,
  0x93, 0xae, 0x4b, 0x88, 0x3c, 0x5f, 0x48, 0x2d, 0x63, 0x70, 0xa1, 0x7a,
  0x58, 0x8b, 0x63, 0x42, 0x7c, 0xbf, 0x5e, 0x95, 0x75, 0x90, 0x3e, 0x7f,
  0x69, 0x8e, 0x4d, 0xa9, 0x5d, 0xab, 0x56, 0x6c, 0x7e, 0x78, 0x98, 0x74,
  0x6a, 0x79, 0x5d, 0x6e, 0x59, 0x9b, 0x7c, 0xa4, 0x61, 0x79, 0x3d, 0xb7,
  0x51, 0xa1, 0x7f, 0x8c, 0x9b, 0xae, 0x56, 0x77, 0x92, 0x6f, 0xab, 0x91,
  0x89, 0x7c, 0x73, 0xbb, 0x7f, 0x9c, 0x7b, 0x65, 0xad, 0x68, 0x5b, 0x8b,
  0x9a, 0x98, 0x91, 0x8c, 0xb1, 0x84, 0x96, 0x7f, 0x9c, 0xa4, 0x59, 0xae,
  0x95, 0x5a, 0x5c, 0x90, 0x86, 0xc5, 0x78, 0xa8, 0x9d, 0x72, 0x46, 0x7e,
  0x1a, 0xa3, 0x99, 0x74, 0x91, 0x43, 0x3a, 0x95, 0x67, 0x9e, 0xaa, 0x7f,
  0xa3, 0x6c, 0x46, 0xa7, 0x64, 0xc7, 0x70, 0x86, 0x58, 0x8e, 0x88, 0x99,
  0x8d, 0x98, 0x90, 0xc2, 0x94, 0x93, 0x9c, 0xa9, 0x83, 0xa7, 0x8e, 0x6d,
  0x70, 0x66, 0x95, 0x6c, 0x82, 0xcc, 0x93, 0x6f, 0x5c, 0x91, 0x47, 0x25,
  0x6e, 0x9f, 0x5c, 0x61, 0x58, 0xaa, 0x2e, 0x61, 0x6c, 0x7b, 0x5c, 0x80,
  0x65, 0x57, 0x6d, 0x46, 0x4c, 0xb3, 0x79, 0x84, 0x32, 0x7d, 0x86, 0x1d,
  0x85, 0x93, 0x4f, 0x7f, 0x79, 0x81, 0x49, 0x40, 0x52, 0x8e, 0x46, 0x9f,
  0x63, 0x67, 0x5a, 0x92, 0x41, 0x89, 0x5d, 0x63, 0x65, 0x9b, 0x21, 0x61,
  0x4a, 0x93, 0xa3, 0xb9, 0x6c, 0x8c, 0x30, 0x73, 0x3c, 0xa7, 0x7d, 0xbc,
  0xa0, 0xa4, 0x47, 0x63, 0x82, 0xab, 0x76, 0xbf, 0x72, 0x84, 0x66, 0xa0,
  0x76, 0x70, 0x9f, 0xc8, 0xbf, 0x5b, 0xa7, 0x9e, 0x49, 0x84, 0x5a, 0xbc,
  0xa9, 0x85, 0x8e, 0x73, 0x7e, 0x95, 0x55, 0x8b, 0xb5, 0x89, 0x6c, 0x87,
  0x89, 0x88, 0x6d, 0x8e, 0x82, 0x61, 0x84, 0x85, 0x61, 0x7c, 0x8d, 0x96,
  0x85, 0x62, 0x4e, 0xa5, 0x70, 0x8e, 0xa1, 0x5f, 0xa6, 0x5f, 0x76, 0xb6,
  0x54, 0x96, 0x89, 0x97, 0x9d, 0x53, 0x6b, 0x7f, 0x59, 0x89, 0x7a, 0x70,
  0x96, 0x6e, 0x8a, 0x7f, 0xc3, 0x8a, 0x7d, 0xc6, 0x7f, 0x7d, 0x8d, 0x93,
  0x83, 0x7b, 0xb0, 0x9d, 0x6a, 0x71, 0x75, 0x75, 0x8c, 0xdb, 0x5a, 0x91,
  0x4b, 0xb8, 0x4e, 0x88, 0x63, 0x9b, 0x2b, 0x85, 0x52, 0x85, 0x2f, 0x5d,
  0x43, 0xa5, 0x5e, 0x70, 0x39, 0x51, 0x5c, 0x4b, 0x6e, 0xa1, 0x9a, 0x6a,
  0x61, 0x81, 0x6e, 0x15, 0x80, 0xa6, 0x59, 0x6f, 0x6e, 0x93, 0x1f, 0x66,
  0x98, 0xac, 0x57, 0x8a, 0x56, 0x5d, 0x80, 0x4a, 0x90, 0x93, 0x97, 0x86,
  0x68, 0x70, 0x32, 0x7f, 0x66, 0x84, 0x81, 0x88, 0x6e, 0x6a, 0x4e, 0x41,
  0x52, 0x89, 0x96, 0x8a, 0x87, 0x80, 0x35, 0xb7, 0x5b, 0x84, 0x89, 0x9f,
  0x77, 0x90, 0x54, 0x84, 0x7c, 0x5b, 0x8e, 0xa4, 0xac, 0x7b, 0x68, 0x7d,
  0x60, 0x69, 0xab, 0xac, 0x92, 0x60, 0x56, 0x7d, 0x8b, 0x87, 0x8f, 0x8c,
  0x78, 0x5b, 0x92, 0x75, 0x88, 0x68, 0x9b, 0x63, 0xb6, 0x85, 0x41, 0x5e,
  0x6e, 0x86, 0x5d, 0x93, 0x7e, 0x59, 0x4c, 0x98, 0x45, 0x9b, 0x90, 0xb0,
  0xa0, 0x6c, 0x8c, 0x87, 0x6a, 0x87, 0x5b, 0xa1, 0xa3, 0x65, 0x61, 0x78,
  0x8b, 0x98, 0x85, 0xa9, 0x4c, 0x82, 0x98, 0x94, 0xa0, 0x6a, 0x6a, 0xab,
  0x5a, 0x82, 0x91, 0x89, 0x89, 0x98, 0x85, 0x9f, 0x63, 0x82, 0xa6, 0x35,
  0x88, 0xc6, 0x68, 0xa9, 0x5d, 0x92, 0x77, 0x84, 0x7b, 0x87, 0x84, 0x91,
  0x6b, 0x7d, 0x6f, 0x62, 0x64, 0x90, 0x5d, 0x9d, 0x3d, 0x4b, 0x72, 0x78,
  0x54, 0xb8, 0x74, 0x59, 0x2b, 0x78, 0x50, 0x35, 0x59, 0xa5, 0x77, 0xb8,
  0x5f, 0xac, 0x6b, 0x55, 0x56, 0x80, 0x5e, 0x6d, 0x64, 0x86, 0x42, 0x58,
  0x6d, 0x8b, 0x94, 0x72, 0x65, 0x56, 0x1a, 0x83, 0x4a, 0x7f, 0x6f, 0x87,
  0x67, 0x95, 0x50, 0x9c, 0x37, 0xaa, 0x8b, 0x71, 0x88, 0x59, 0x47, 0xa6,
  0x49, 0x8f, 0x8b, 0x9c, 0x8b, 0x82, 0x8b, 0x79, 0x71, 0x9e, 0x73, 0xa1,
  0x88, 0x6b, 0xb3, 0x8f, 0x82, 0x80, 0x7d, 0x81, 0x88, 0x61, 0x97, 0x7c,
  0x89, 0x7a, 0x93, 0x7d, 0x8e, 0x58, 0x7f, 0x7f, 0x83, 0x55, 0x71, 0xa9,
  0xaa, 0x8b, 0x62, 0x7b, 0x77, 0x82, 0x78, 0x77, 0x98, 0x5a, 0x4e, 0x59,
  0x7b, 0x8b, 0x58, 0x89, 0x66, 0x5d, 0x44, 0xa2, 0x73, 0x88, 0x9c, 0xa7,
  0x8c, 0x96, 0x54, 0x88, 0x85, 0x97, 0x5b, 0x8a, 0x85, 0x70, 0x91, 0x72,
  0x82, 0x58, 0x96, 0x87, 0xab, 0x8a, 0x88, 0x6a, 0x8d, 0x83, 0xbf, 0x9b,
  0x6b, 0xb2, 0x81, 0x46, 0x59, 0xcd, 0x5a, 0x9a, 0x4e, 0x7d, 0x8e, 0x5f,
  0x5c, 0x8e, 0x60, 0x8c, 0x65, 0x6f, 0x62, 0x33, 0x4a, 0xa6, 0x4c, 0xa2,
  0x2e, 0x50, 0x28, 0x42, 0x90, 0xb7, 0x7a, 0x97, 0x45, 0x86, 0x5a, 0x3c,
  0x58, 0xad, 0x8a, 0xa8, 0x4c, 0x6b, 0x5a, 0x36, 0x59, 0xc8, 0x84, 0x71,
  0x42, 0x87, 0x5c, 0x76, 0x7f, 0x80, 0x91, 0xc5, 0x81, 0x75, 0x4f, 0x83,
  0x42, 0x8b, 0x88, 0x76, 0x5d, 0x80, 0x4b, 0x81, 0x42, 0x96, 0x9a, 0xb6,
  0x76, 0x68, 0x59, 0x5d, 0x75, 0x84, 0x89, 0xa4, 0xbf, 0x8d, 0x5e, 0x95,
  0x73, 0x62, 0x76, 0x69, 0x7d, 0x65, 0x8a, 0x5e, 0x99, 0x89, 0x90, 0x8c,
  0x86, 0x55, 0xad, 0x92, 0x9b, 0x82, 0x9e, 0x9e, 0x8d, 0xb6, 0xaf, 0xa9,
  0x78, 0x6a, 0x79, 0x95, 0xbe, 0x67, 0x6c, 0x6b, 0x8b, 0x6f, 0x74, 0x96,
  0x7b, 0x6b, 0x56, 0xa0, 0x2f, 0x8a, 0x78, 0x96, 0xb6, 0x64, 0x66, 0x8f,
  0x76, 0x7c, 0x5e, 0xaf, 0x55, 0x93, 0x5e, 0x98, 0x51, 0x86, 0x9a, 0x84,
  0x9a, 0x89, 0xa9, 0x6c, 0x8e, 0x7e, 0x6f, 0xc3, 0x55, 0x7e, 0xab, 0x81,
  0x93, 0x94, 0xa5, 0x7a, 0x58, 0xae, 0x68, 0x23, 0x77, 0xd6, 0x4c, 0xa5,
  0x4e, 0xa9, 0x9f, 0x4c, 0x84, 0x8e, 0x7c, 0x74, 0x7a, 0x63, 0x52, 0x22,
  0x5d, 0x9d, 0x95, 0x88, 0x46, 0x61, 0x5f, 0x38, 0x60, 0xba, 0x74, 0xa0,
  0x6d, 0x8a, 0x52, 0x1a, 0x76, 0x9f, 0x84, 0x7b, 0x54, 0x81, 0x52, 0x38,
  0x67, 0xbe, 0x52, 0x65, 0x47, 0x8b, 0x64, 0x7c, 0x5c, 0x78, 0x6c, 0x90,
  0x6b, 0x5e, 0x11, 0x7d, 0x63, 0x9c, 0x93, 0x91, 0x4b, 0x7e, 0x3e, 0x6c,
  0x70, 0x95, 0x7e, 0x66, 0xad, 0x7c, 0x8a, 0x9d, 0x5d, 0x92, 0x77, 0xa6,
  0x80, 0x6c, 0x74, 0x96, 0x8f, 0x6b, 0x8d, 0xa5, 0x8e, 0x8c, 0x8f, 0xa6,
  0x9e, 0x7f, 0x8f, 0x8b, 0xa1, 0x8c, 0xaa, 0x57, 0xa3, 0x62, 0x79, 0x7d,
  0x7f, 0x7b, 0x85, 0x51, 0xb4, 0x78, 0x70, 0xca, 0xa2, 0x64, 0x57, 0x75,
  0x68, 0x82, 0x6d, 0x84, 0x6f, 0x6e, 0x68, 0x75, 0x7e, 0x7c, 0x80, 0x93,
  0xb1, 0x4e, 0x6d, 0x66, 0x7b, 0x94, 0x8e, 0x7f, 0x8b, 0x59, 0x4f, 0x8f,
  0x68, 0x6d, 0xb0, 0x9b, 0x95, 0x55, 0x80, 0x7c, 0x94, 0x73, 0x79, 0xa6,
  0x69, 0x8e, 0x99, 0xa0, 0x8d, 0x87, 0x9a, 0x83, 0x87, 0xb5, 0x74, 0x40,
  0x85, 0xc4, 0x41, 0x65, 0x6c, 0x45, 0x54, 0x52, 0x5e, 0x80, 0x50, 0x9b,
  0x57, 0x72, 0x4b, 0x5c, 0x82, 0x85, 0x48, 0x97, 0x22, 0x40, 0x54, 0x48,
  0x8b, 0xb2, 0x8c, 0x7d, 0x41, 0x59, 0x6b, 0x29, 0x72, 0x97, 0x7b, 0xa9,
  0x3f, 0x8d, 0x5c, 0x5a, 0x73, 0xad, 0x7f, 0x74, 0x65, 0x6d, 0x67, 0x5c,
  0x66, 0x93, 0x82, 0x77, 0x6a, 0x85, 0x43, 0x5e, 0x4a, 0xa1, 0x58, 0x85,
  0x93, 0x5f, 0x4b, 0x40, 0x3f, 0x93, 0x76, 0xbb, 0x97, 0xa9, 0x41, 0xb6,
  0x82, 0x80, 0x7b, 0xa2, 0x97, 0xb9, 0x54, 0x63, 0x5d, 0x73, 0x98, 0xac,
  0xa5, 0x4a, 0xb4, 0xac, 0x8d, 0x77, 0x8a, 0x70, 0xa0, 0x92, 0x76, 0x9d,
  0x68, 0x7e, 0x7f, 0x9d, 0xbc, 0x93, 0x6b, 0xb2, 0x8e, 0x6f, 0x9c, 0x82,
  0x75, 0x4e, 0x71, 0xb2, 0x63, 0x8c, 0x68, 0xbb, 0x9b, 0x70, 0x62, 0x8d,
  0x80, 0x7c, 0x73, 0x9d, 0x9e, 0x52, 0x4b, 0x5e, 0x5d, 0x83, 0x96, 0x9e,
  0x63, 0x91, 0x50, 0x7c, 0x69, 0xa6, 0x99, 0xa5, 0x6c, 0x76, 0x73, 0x56,
  0x83, 0x77, 0x9c, 0xac, 0x62, 0x76, 0x9b, 0x77, 0x9f, 0xa9, 0x7f, 0x72,
  0x74, 0x93, 0xa1, 0x3c, 0x70, 0xbf, 0x73, 0x8e, 0x54, 0x8e, 0x58, 0x74,
  0x78, 0xa5, 0x34, 0x96, 0x36, 0x81, 0x41, 0x1b, 0x39, 0x98, 0x72, 0xa3,
  0x1c, 0x52, 0x56, 0x40, 0x74, 0xc5, 0x81, 0x6c, 0x12, 0xa5, 0x76, 0x47,
  0x86, 0xb1, 0x35, 0xb3, 0x27, 0x69, 0x3f, 0x45, 0x91, 0xa9, 0x47, 0x95,
  0x65, 0x7a, 0x4e, 0x58, 0x5f, 0xb4, 0x84, 0x9d, 0x69, 0x62, 0x62, 0x5d,
  0x51, 0x95, 0x59, 0x5e, 0x6a, 0x5d, 0x25, 0x8f, 0x4b, 0x99, 0x6b, 0x8f,
  0xa0, 0xa7, 0x87, 0xa7, 0x77, 0x7f, 0x79, 0x98, 0xa1, 0x96, 0x93, 0x94,
  0x8a, 0x7f, 0x8a, 0x7c, 0x90, 0x7c, 0x59, 0xb3, 0x80, 0x87, 0x8b, 0x7b,
  0xca, 0x74, 0x9a, 0x7c, 0x82, 0x6a, 0xae, 0xa4, 0x9f, 0x7a, 0xaf, 0xa0,
  0x9a, 0x6d, 0x89, 0x97, 0x9b, 0x78, 0x72, 0x73, 0x6d, 0x8c, 0x7d, 0x7a,
  0xac, 0x67, 0x6c, 0xad, 0x57, 0x5b, 0x91, 0x7a, 0xb0, 0x77, 0x42, 0x9b,
  0x66, 0x7d, 0x8a, 0x69, 0x86, 0x77, 0x36, 0x75, 0x7d, 0x78, 0xa6, 0xa2,
  0x83, 0x67, 0x8c, 0x81, 0x89, 0x99, 0x89, 0xc6, 0x96, 0x7c, 0x9b, 0x70,
  0x93, 0x80, 0x80, 0x76, 0x52, 0x8c, 0x8f, 0x42, 0x6e, 0xc9, 0x75, 0x9b,
  0x56, 0x6d, 0x72, 0x47, 0x69, 0x99, 0x75, 0x80, 0x3a, 0x7b, 0x58, 0x4f,
  0x54, 0xbb, 0x46, 0x4d, 0x36, 0x6d, 0x30, 0x48, 0x4e, 0xbb, 0x91, 0x78,
  0x5b, 0x6b, 0x62, 0x48, 0x39, 0xa9, 0x70, 0x90, 0x3a, 0x9a, 0x59, 0x42,
  0x8d, 0xc1, 0x4f, 0x67, 0x29, 0x90, 0x65, 0x65, 0x74, 0x93, 0x7a, 0x90,
  0x77, 0x5a, 0x55, 0x6e, 0x5d, 0xa6, 0x68, 0x79, 0x78, 0x72, 0x40, 0x6e,
  0x69, 0x8a, 0x88, 0x9c, 0x99, 0x8e, 0x50, 0x74, 0x50, 0x87, 0x94, 0xb9,
  0x8c, 0x93, 0x60, 0x8b, 0x66, 0x94, 0x99, 0xa9, 0x89, 0x57, 0x6e, 0x85,
  0x8b, 0x72, 0x98, 0x99, 0xa2, 0x58, 0xa7, 0x96, 0x7d, 0x6e, 0x74, 0x62,
  0xad, 0xb3, 0xa2, 0x86, 0x9e, 0x66, 0x86, 0x8d, 0xc0, 0x63, 0x6b, 0xbf,
  0x80, 0x83, 0x7f, 0xb0, 0xa6, 0x64, 0x42, 0x97, 0x56, 0x80, 0x89, 0x9b,
  0x72, 0x4f, 0x6d, 0x54, 0x61, 0x87, 0x6b, 0x6b, 0x6f, 0x5c, 0x62, 0x79,
  0x53, 0x8f, 0x95, 0xaf, 0x89, 0x84, 0x7c, 0x8e, 0x82, 0x74, 0x6a, 0xa7,
  0x5b, 0x90, 0x82, 0x73, 0x7e, 0x74, 0x64, 0x80, 0x4e, 0xb5, 0x6d, 0x56,
  0x81, 0xd4, 0x6a, 0x4f, 0x2b, 0x76, 0x82, 0x70, 0x87, 0xa7, 0x53, 0x92,
  0x32, 0x47, 0x44, 0x6f, 0x51, 0xb1, 0x8c, 0x83, 0x17, 0x65, 0x33, 0x57,
  0x6d, 0xd2, 0x8b, 0x7f, 0x3f, 0x6c, 0x40, 0x29, 0x60, 0xbb, 0x58, 0x8d,
  0x17, 0x7f, 0x6f, 0x5e, 0x49, 0x91, 0x68, 0x8f, 0x36, 0xab, 0x50, 0x39,
  0x7a, 0xa2, 0x53, 0x5b, 0x4c, 0x93, 0x32, 0x58, 0x75, 0xb2, 0x75, 0xb1,
  0x45, 0x63, 0x37, 0x7b, 0x5e, 0xb0, 0x85, 0xae, 0x5a, 0x87, 0x67, 0x8a,
  0x56, 0x88, 0x99, 0x75, 0x84, 0x74, 0x66, 0x54, 0x8f, 0x8a, 0x5e, 0x92,
  0xa5, 0x49, 0x73, 0xa3, 0x58, 0x72, 0x78, 0x7b, 0xbd, 0x68, 0x90, 0x93,
  0xaf, 0x75, 0x96, 0xac, 0x86, 0x93, 0xb5, 0x97, 0x81, 0x9b, 0xa3, 0xa7,
  0x84, 0x58, 0x42, 0xaa, 0x6d, 0x99, 0x8f, 0x98, 0x7b, 0x6c, 0x66, 0x9d,
  0x50, 0x7a, 0x71, 0x9b, 0x88, 0x90, 0x67, 0x7e, 0x53, 0x9d, 0x76, 0x91,
  0xac, 0x69, 0x86, 0x6d, 0x7a, 0x7a, 0x6f, 0x79, 0x96, 0x74, 0x73, 0x57,
  0x9a, 0x7b, 0x6f, 0xba, 0x4f, 0x79, 0x83, 0x7d, 0x88, 0xa2, 0x6c, 0xaf,
  0x79, 0x7c, 0x94, 0x45, 0x78, 0xce, 0x70, 0x4f, 0x39, 0x87, 0x8c, 0x73,
  0x74, 0xab, 0x5b, 0x74, 0x49, 0x66, 0x29, 0x35, 0x51, 0x93, 0x64, 0x77,
  0x4e, 0x70, 0x41, 0x35, 0x4b, 0xb9, 0x77, 0x73, 0x57, 0x71, 0x29, 0x64,
  0x97, 0x9c, 0x6a, 0x88, 0x3c, 0x92, 0x39, 0x46, 0x6b, 0xd7, 0x79, 0x8a,
  0x38, 0x91, 0x3c, 0x4c, 0x8f, 0xaa, 0x5a, 0x98, 0x52, 0x70, 0x55, 0x4b,
  0x6e, 0x8c, 0x78, 0x84, 0x85, 0x9c, 0x34, 0x67, 0x51, 0x9d, 0x95, 0x96,
  0x7c, 0x74, 0x70, 0x78, 0x67, 0x7a, 0x9a, 0x90, 0x89, 0xac, 0x70, 0x8f,
  0x87, 0x7a, 0x9e, 0x77, 0x8c, 0x80, 0x7f, 0x83, 0x7c, 0x83, 0x7b, 0x71,
  0x84, 0x6d, 0xbd, 0x94, 0x6f, 0x91, 0x97, 0x8c, 0xc4, 0x8a, 0xba, 0x8b,
  0xb0, 0x83, 0x70, 0x73, 0xac, 0xa6, 0x3f, 0x65, 0x71, 0x9a, 0x62, 0x80,
  0xa7, 0x4d, 0x5e, 0x7d, 0x76, 0x82, 0x6b, 0xa0, 0x7d, 0x59, 0x64, 0x82,
  0x5e, 0x97, 0x9e, 0x9b, 0x89, 0x91, 0x3f, 0x6f, 0x69, 0x92, 0x79, 0xa8,
  0x51, 0x86, 0x75, 0x67, 0x83, 0x76, 0x4d, 0x91, 0x9c, 0xa4, 0x9d, 0x73,
  0xad, 0x7b, 0x90, 0xa8, 0x51, 0x63, 0x90, 0x53, 0xad, 0xc2, 0x48, 0xbc,
  0x41, 0x93, 0x70, 0x46, 0x73, 0xc6, 0x4f, 0x62, 0x42, 0x7f, 0x3a, 0x43,
  0x58, 0xb5, 0x7e, 0x6f, 0x3e, 0x47, 0x42, 0x55, 0x55, 0xd9, 0x55, 0x9a,
  0x2a, 0x6f, 0x32, 0x6e, 0x60, 0xc5, 0x81, 0xa1, 0x47, 0x89, 0x5e, 0x6f,
  0x62, 0xca, 0x30, 0xa4, 0x35, 0x93, 0x56, 0x4f, 0x62, 0x8e, 0x92, 0x93,
  0x71, 0xa9, 0x69, 0x72, 0x3e, 0xa4, 0x54, 0x8d, 0x80, 0xa6, 0x5e, 0x72,
  0x59, 0xab, 0xa7, 0x74, 0x9c, 0x83, 0x57, 0x8b, 0x71, 0x86, 0x8a, 0x8f,
  0x8e, 0x89, 0x8d, 0x8e, 0x72, 0x8b, 0x8a, 0x93, 0x80, 0x4b, 0x85, 0x69,
  0xa5, 0x84, 0x9b, 0x81, 0xb3, 0x72, 0xaa, 0x7f, 0x6e, 0x69, 0x8a, 0x85,
  0x9b, 0x69, 0x9a, 0xb8, 0x71, 0x8e, 0x63, 0x78, 0xbc, 0x78, 0x50, 0xa2,
  0x78, 0x85, 0x63, 0x9b, 0x77, 0x6a, 0x5d, 0x9e, 0x50, 0x80, 0x9d, 0x7d,
  0x68, 0x6a, 0x5a, 0x5b, 0x43, 0x7d, 0x8e, 0xa1, 0xa9, 0x90, 0x5a, 0x5e,
  0x4a, 0x93, 0x59, 0x7f, 0x79, 0x8a, 0x60, 0x46, 0xae, 0x87, 0x4e, 0xad,
  0x81, 0x86, 0xa5, 0x62, 0xaa, 0x94, 0x66, 0x9c, 0x6e, 0x7f, 0x64, 0x3e,
  0x4e, 0xc9, 0x5e, 0x7a, 0x47, 0x77, 0x85, 0x7b, 0x91, 0xb0, 0x58, 0x64,
  0x48, 0x56, 0x77, 0x6f, 0x54, 0xbf, 0x65, 0x70, 0x6b, 0x5b, 0x3a, 0x7b,
  0x75, 0xc2, 0x88, 0x8f, 0x31, 0x88, 0x50, 0x56, 0x65, 0xab, 0x88, 0x98,
  0x77, 0x84, 0x5c, 0x61, 0x87, 0xc2, 0x50, 0x94, 0x2f, 0x8b, 0x56, 0x4f,
  0xa8, 0xbb, 0x77, 0x9a, 0x68, 0x96, 0x48, 0x9c, 0x75, 0xab, 0x57, 0x7a,
  0x8b, 0x7a, 0x6e, 0x7a, 0x57, 0xa7, 0x53, 0xa9, 0x7c, 0x88, 0x44, 0x88,
  0x7a, 0x96, 0x85, 0x91, 0x70, 0x82, 0x81, 0x81, 0x89, 0x8d, 0x99, 0x7b,
  0x89, 0x6a, 0x80, 0x6f, 0x59, 0x8e, 0x72, 0x76, 0x86, 0x96, 0xb8, 0x95,
  0x8e, 0x63, 0x86, 0xa0, 0xb1, 0x80, 0x92, 0x76, 0x6b, 0x8a, 0x9e, 0x95,
  0xc3, 0x6a, 0x65, 0xaf, 0x4c, 0x94, 0x85, 0xb2, 0x9a, 0x5a, 0x67, 0xa4,
  0x68, 0x93, 0x7e, 0x8d, 0x9d, 0x3d, 0x5b, 0x7e, 0x3e, 0x98, 0xa8, 0xaf,
  0x8a, 0x75, 0x64, 0x6d, 0x84, 0x7d, 0x7b, 0x9c, 0x75, 0x70, 0x7d, 0x4c,
  0x96, 0x64, 0x48, 0x7b, 0x7e, 0x88, 0xbc, 0x5d, 0x9a, 0x9c, 0x8b, 0x9d,
  0x6a, 0xa6, 0x89, 0x35, 0x46, 0xdc, 0x51, 0xa4, 0x36, 0x6f, 0x83, 0x55,
  0x78, 0xa0, 0x65, 0x54, 0x4b, 0x6c, 0x45, 0x37, 0x6a, 0x93, 0x5a, 0x72,
  0x52, 0x66, 0x64, 0x37, 0x57, 0xd8, 0x50, 0x96, 0x4a, 0x84, 0x58, 0x3e,
  0x64, 0xbd, 0x56, 0x9e, 0x2c, 0xa2, 0x7e, 0x5b, 0x7e, 0xcd, 0x66, 0x87,
  0x61, 0xb1, 0x41, 0x7d, 0x7e, 0xac, 0x62, 0xaf, 0x8f, 0x97, 0x28, 0x6d,
  0x4f, 0xac, 0x77, 0x63, 0x8d, 0x7f, 0x17, 0x7c, 0x36, 0x81, 0x64, 0x6d,
  0x8b, 0x85, 0x4b, 0x73, 0x5f, 0x98, 0x8e, 0x7e, 0x97, 0xa2, 0x9e, 0x7c,
  0x56, 0x61, 0x85, 0x96, 0x7c, 0x8a, 0x6d, 0x7f, 0x68, 0x71, 0x86, 0x9d,
  0x85, 0x9e, 0xa0, 0x9c, 0xaf, 0x7b, 0x9b, 0x8d, 0xe3, 0x74, 0xb8, 0x84,
  0x71, 0x9c, 0x9d, 0x92, 0x81, 0x96, 0x64, 0x90, 0x4b, 0x95, 0x9a, 0x9e,
  0xae, 0x6b, 0x72, 0xb2, 0x51, 0x99, 0xb8, 0x86, 0x98, 0x79, 0x52, 0x6b,
  0x5c, 0x95, 0x69, 0xb3, 0x91, 0x3f, 0x31, 0x3b, 0x44, 0x94, 0x60, 0x9f,
  0x7b, 0x66, 0x6e, 0x40, 0x86, 0x89, 0x59, 0x7a, 0x73, 0x8a, 0x9f, 0x57,
  0x7e, 0x7b, 0x92, 0x75, 0xb9, 0x71, 0xa8, 0x09, 0x65, 0xfe, 0x41, 0xbc,
  0x51, 0xb1, 0x8f, 0x11, 0x72, 0xb5, 0x54, 0x85, 0x46, 0xb9, 0x3f, 0x19,
  0x6f, 0xb4, 0x34, 0x61, 0x1f, 0x5c, 0x58, 0x0e, 0x46, 0xdb, 0x4e, 0x95,
  0x46, 0x92, 0x58, 0x65, 0x84, 0xd2, 0x52, 0xa1, 0x2b, 0x97, 0x55, 0x44,
  0x67, 0xb7, 0x47, 0x79, 0x62, 0xa8, 0x3e, 0x7b, 0x58, 0xbd, 0x70, 0x8c,
  0x40, 0xc3, 0x01, 0x44, 0x28, 0xb7, 0x75, 0x94, 0x5c, 0x87, 0x2b, 0x60,
  0x47, 0xb3, 0x7b, 0x82, 0x59, 0xb3, 0x66, 0x59, 0x7f, 0x85, 0x7d, 0x79,
  0x64, 0x6a, 0x8f, 0x95, 0x6a, 0x78, 0xad, 0x86, 0x99, 0x80, 0x8d, 0x8c,
  0xb5, 0x75, 0x8e, 0x8f, 0xb9, 0x85, 0xac, 0x73, 0x97, 0x7b, 0x96, 0x78,
  0xc1, 0x67, 0x92, 0x55, 0x75, 0x9e, 0x9b, 0x9f, 0xba, 0x97, 0x68, 0x96,
  0x92, 0x81, 0xb3, 0xa9, 0x99, 0x80, 0x65, 0x59, 0x3d, 0x79, 0x90, 0x92,
  0x7d, 0x67, 0x60, 0x5a, 0x6f, 0x9c, 0x4a, 0x7c, 0x9c, 0x80, 0x78, 0x46,
  0x68, 0x99, 0x93, 0xb5, 0x90, 0x9b, 0x6d, 0x6d, 0x88, 0x7b, 0x4a, 0x79,
  0x5d, 0x8d, 0xaf, 0xa0, 0x7d, 0x85, 0xa5, 0x7f, 0xc4, 0x6c, 0x68, 0x78,
  0x79, 0xf1, 0x6a, 0x84, 0x99, 0x7c, 0x66, 0x40, 0x73, 0xe0, 0x59, 0x9b,
  0xaf, 0x95, 0x2c, 0x57, 0x6e, 0x94, 0x3e, 0x75, 0x85, 0x66, 0x4b, 0x59,
  0x72, 0xe2, 0x5f, 0x64, 0x6a, 0x9f, 0x46, 0x81, 0x92, 0xc1, 0x99, 0x63,
  0x61, 0xc4, 0x69, 0x6c, 0x6b, 0xd8, 0x87, 0x99, 0x74, 0x9b, 0x41, 0x5b,
  0x63, 0xb9, 0x79, 0x61, 0x7a, 0xa7, 0x22, 0x60, 0x34, 0x88, 0x48, 0x7b,
  0x40, 0x77, 0x25, 0x6c, 0x53, 0xa8, 0x9e, 0x7f, 0x7e, 0x68, 0x41, 0x83,
  0x30, 0x82, 0x77, 0xa1, 0x7d, 0xa3, 0x65, 0x88, 0x96, 0x7e, 0x6d, 0x81,
  0x77, 0x53, 0x70, 0x8a, 0xa3, 0x71, 0x8b, 0x7b, 0x7a, 0x81, 0x76, 0x40,
  0x8c, 0x85, 0x9c, 0x7d, 0xad, 0x7a, 0x56, 0x6e, 0x9c, 0x89, 0x72, 0x97,
  0x8e, 0x6f, 0x43, 0x6f, 0x60, 0x9f, 0x6a, 0x8a, 0x9e, 0x55, 0x1f, 0x7e,
  0x58, 0x83, 0x64, 0xa6, 0x98, 0x78, 0x68, 0x69, 0x69, 0x9e, 0x6f, 0x6d,
  0x6d, 0x73, 0x45, 0x46, 0x72, 0x7b, 0x8b, 0x89, 0xa9, 0x48, 0x9d, 0x66,
  0xb4, 0x85, 0x9f, 0x92, 0x72, 0xaf, 0x9b, 0xab, 0x8b, 0x87, 0x92, 0x6c,
  0xb3, 0xb9, 0x6e, 0x8a, 0x6c, 0xe4, 0x70, 0x5d, 0x9d, 0x9e, 0x82, 0x50,
  0x5c, 0xd9, 0x7a, 0x7f, 0xc5, 0xa8, 0x71, 0x5d, 0x63, 0x75, 0x59, 0x9c,
  0xb8, 0x97, 0x2a, 0x5e, 0x5f, 0xbe, 0x4f, 0x7d, 0xbd, 0xce, 0x57, 0x84,
  0x44, 0xa5, 0x8f, 0x4f, 0xa8, 0x98, 0x86, 0x57, 0x59, 0xac, 0x85, 0x71,
  0x7a, 0xae, 0x5c, 0x6f, 0x44, 0x96, 0x79, 0x94, 0x60, 0x8d, 0x3a, 0x7d,
  0x3b, 0xb3, 0x91, 0x80, 0x83, 0x5c, 0x34, 0x4e, 0x58, 0xb8, 0x73, 0x53,
  0x8b, 0x94, 0x64, 0x51, 0x33, 0x83, 0x89, 0x7e, 0x9a, 0x93, 0x6a, 0x6f,
  0x62, 0x5a, 0xa4, 0x85, 0x85, 0x8c, 0x8f, 0x62, 0x8a, 0x70, 0xaa, 0x80,
  0xa0, 0x67, 0x4f, 0x6c, 0x92, 0x97, 0x75, 0x66, 0x96, 0x87, 0x6e, 0x53,
  0x77, 0x68, 0x68, 0x98, 0xa3, 0x4e, 0x63, 0x5a, 0x3e, 0x83, 0x7c, 0x79,
  0x89, 0x61, 0x6c, 0x5b, 0x63, 0x8e, 0x93, 0x73, 0x94, 0x8b, 0x84, 0x65,
  0x64, 0x94, 0x64, 0x78, 0xb1, 0x75, 0x85, 0x5c, 0x55, 0x8d, 0x7a, 0xb4,
  0xa2, 0x66, 0xac, 0x81, 0x93, 0x97, 0x7d, 0x96, 0x7c, 0x9f, 0xab, 0x93,
  0x94, 0x78, 0x88, 0x4e, 0x88, 0x6b, 0x81, 0xa1, 0xb0, 0x83, 0x9f, 0xac,
  0x7b, 0x99, 0xa1, 0x76, 0x4d, 0x70, 0x73, 0xa6, 0x9e, 0x8f, 0x6f, 0x68,
  0x6f, 0x94, 0x69, 0xa4, 0x58, 0x87, 0x9f, 0x84, 0x72, 0x85, 0x91, 0x9d,
  0x66, 0x93, 0x7f, 0x72, 0xa7, 0xb4, 0x88, 0x71, 0xb1, 0x96, 0x96, 0x8a,
  0x82, 0x71, 0x7f, 0x98, 0xa9, 0x4f, 0x8e, 0x94, 0x7b, 0x74, 0x60, 0x84,
  0x5a, 0xa0, 0x78, 0x7c, 0x89, 0x70, 0x80, 0x92, 0x6e, 0x94, 0x85, 0x9d,
  0x75, 0x79, 0x80, 0x82, 0x5f, 0x8b, 0x60, 0x89, 0x91, 0x89, 0xb6, 0x9e,
  0xbc, 0x9e, 0x80, 0x90, 0x55, 0x7e, 0x8b, 0x87, 0x5b, 0x64, 0x7a, 0x87,
  0x81, 0x97, 0x89, 0x80, 0xa0, 0x83, 0x9c, 0x6b, 0x7e, 0x70, 0x70, 0x89,
  0x7a, 0xad, 0x8a, 0x88, 0x9b, 0x85, 0x81, 0x80, 0xa7, 0x91, 0x84, 0x79,
  0x90, 0x94, 0x7c, 0x84, 0x4f, 0xb6, 0x76, 0xa0, 0x73, 0x59, 0x5f, 0x9e,
  0x8b, 0x75, 0x48, 0xa3, 0x51, 0x6e, 0x86, 0x68, 0x97, 0x8a, 0x43, 0x8a,
  0x63, 0x6d, 0xb9, 0x92, 0x6b, 0x65, 0x84, 0x87, 0x75, 0x6f, 0x65, 0x6e,
  0x95, 0x6c, 0x82, 0x8f, 0x88, 0x70, 0x92, 0x8b, 0xb5, 0x8c, 0x8d, 0xae,
  0x89, 0x91, 0x6f, 0x9c, 0x5f, 0x60, 0x70, 0x99, 0x69, 0x9b, 0x99, 0x88,
  0x86, 0x7a, 0x97, 0x65, 0x8b, 0x9b, 0x91, 0x82, 0x87, 0x5e, 0xa0, 0x84,
  0xa7, 0x90, 0x85, 0x7f, 0x86, 0x76, 0x9e, 0x8d, 0x91, 0x7a, 0x71, 0x79,
  0x71, 0x97, 0x9b, 0xbf, 0xae, 0x80, 0x79, 0x70, 0x5a, 0x87, 0xbb, 0x4b,
  0x64, 0x8f, 0x71, 0x84, 0x6e, 0x8c, 0x84, 0x5f, 0xac, 0x85, 0x6e, 0x84,
  0xb3, 0x8c, 0x87, 0x72, 0x6e, 0x81, 0x86, 0x6d, 0x62, 0x80, 0x9a, 0x7b,
  0x77, 0x8e, 0x60, 0x8a, 0x7a, 0xae, 0x69, 0x96, 0x78, 0x8a, 0x51, 0x7b,
  0x4b, 0x8b, 0x77, 0x92, 0x92, 0x6b, 0x6a, 0x7a, 0x54, 0x7f, 0x85, 0x73,
  0x77, 0x91, 0x73, 0x77, 0x95, 0x74, 0x6c, 0x5f, 0x5f, 0x9a, 0xa9, 0x90,
  0xa1, 0x84, 0x97, 0x72, 0x85, 0x91, 0x6a, 0x81, 0xa1, 0x50, 0x6d, 0xa7,
  0xa3, 0xad, 0x94, 0x73, 0x69, 0xa1, 0x6b, 0x94, 0x70, 0x7b, 0x76, 0x87,
  0x6f, 0x89, 0x5a, 0x81, 0x64, 0x90, 0x7c, 0xa0, 0x5e, 0x8f, 0x73, 0x63,
  0x82, 0x7a, 0x84, 0x71, 0x97, 0x9b, 0xa8, 0x85, 0x99, 0x8d, 0x79, 0x9c,
  0x7d, 0x4f, 0x96, 0x8d, 0x4a, 0x96, 0x89, 0x99, 0x9b, 0x58, 0x66, 0x95,
  0xb5, 0xc5, 0xbe, 0xa7, 0x79, 0x44, 0x9b, 0x9c, 0x70, 0x8f, 0x93, 0x6b,
  0x94, 0x8c, 0xa7, 0x97, 0x86, 0xaf, 0xb9, 0x5e, 0xb9, 0x79, 0xab, 0x9d,
  0x8b, 0x90, 0xb1, 0x95, 0x89, 0x77, 0x98, 0x6e, 0x89, 0xa6, 0x8a, 0x53,
  0x81, 0x79, 0x7e, 0x70, 0x6e, 0x9c, 0x6f, 0x96, 0x48, 0x93, 0x9b, 0x73,
  0x72, 0x96, 0xa0, 0x5a, 0x72, 0xa1, 0x61, 0x78, 0x60, 0x97, 0x88, 0x77,
  0x63, 0xa6, 0x86, 0x80, 0x86, 0x8b, 0x79, 0x80, 0x6f, 0x6c, 0x8e, 0x6b,
  0x70, 0xae, 0x97, 0x9a, 0x80, 0xb2, 0x99, 0x7a, 0x7e, 0x81, 0x90, 0x69,
  0x6f, 0x88, 0x7d, 0x8e, 0x7e, 0x7c, 0x93, 0x85, 0xaf, 0x84, 0x83, 0x77,
  0x8c, 0x79, 0x9a, 0x81, 0xab, 0x9e, 0x9f, 0x7f, 0x72, 0x98, 0xac, 0x6c,
  0x6d, 0x9f, 0x69, 0x61, 0x97, 0xa8, 0x9c, 0x87, 0xae, 0x67, 0x70, 0x65,
  0x89, 0x82, 0x6e, 0x7c, 0x97, 0xa3, 0x5a, 0x9a, 0x6c, 0x96, 0x96, 0x56,
  0x85, 0x66, 0x8c, 0x6a, 0x76, 0x9c, 0x5c, 0x8b, 0x71, 0x83, 0x7f, 0x40,
  0x81, 0xa1, 0x54, 0xb5, 0x86, 0x5d, 0x7e, 0xc6, 0x98, 0x7d, 0xb3, 0x4d,
  0x9f, 0x82, 0x7a, 0xc6, 0x8d, 0xac, 0xc8, 0x7b, 0x71, 0x5d, 0xbe, 0xac,
  0xc4, 0x93, 0x8c, 0x5f, 0x89, 0x7c, 0xc2, 0x9c, 0x9f, 0x7d, 0xa5, 0x8d,
  0x94, 0x37, 0xb7, 0x93, 0x8d, 0x7b, 0xb4, 0x9f, 0x97, 0x53, 0x93, 0x87,
  0x95, 0x80, 0xa3, 0x75, 0x63, 0x75, 0xb1, 0x70, 0x83, 0xb2, 0x83, 0x7c,
  0x63, 0x84, 0x94, 0x83, 0x87, 0x94, 0x5e, 0x6b, 0x55, 0x7b, 0x86, 0x76,
  0x89, 0x8b, 0x5b, 0x6f, 0x8c, 0x9f, 0x7c, 0x9a, 0x9c, 0x8c, 0xa8, 0x97,
  0x62, 0x87, 0x91, 0x68, 0x62, 0x7b, 0x97, 0x8b, 0x67, 0x92, 0x83, 0x6b,
  0x8b, 0x8b, 0x7b, 0x93, 0x5a, 0x9a, 0x93, 0x77, 0x6e, 0x83, 0xbc, 0x86,
  0x83, 0x72, 0x73, 0x85, 0x8f, 0x82, 0xc4, 0x6b, 0xa9, 0x8c, 0x7b, 0x88,
  0x6c, 0x67, 0x7f, 0x7d, 0x5c, 0x89, 0x82, 0x7d, 0x7c, 0x94, 0xb1, 0x65,
  0x8c, 0x99, 0x7d, 0x6e, 0x80, 0x81, 0xa9, 0x81, 0x9d, 0xac, 0x64, 0x7a,
  0x78, 0x78, 0x91, 0x67, 0xad, 0x66, 0x94, 0x4b, 0x8e, 0x79, 0x68, 0x8e,
  0x9c, 0x75, 0x92, 0x7c, 0x7e, 0x8d, 0x7d, 0x48, 0x8a, 0x8f, 0xb0, 0xc6,
  0x66, 0x8a, 0x89, 0x91, 0x8d, 0x74, 0xa1, 0xae, 0x69, 0xa0, 0x7d, 0x88,
  0x9a, 0x51, 0xb8, 0xaa, 0xba, 0x96, 0x79, 0x95, 0x7f, 0x92, 0xcd, 0xa7,
  0xa6, 0x60, 0x7e, 0x6b, 0x6d, 0x52, 0xd3, 0xa2, 0x9e, 0x64, 0x93, 0x9e,
  0x6e, 0x43, 0xca, 0x5f, 0x8e, 0x58, 0x7c, 0x6c, 0x5b, 0x65, 0xc4, 0x7b,
  0x9e, 0x64, 0x5b, 0x54, 0x71, 0xa2, 0x9e, 0x6e, 0x82, 0x92, 0x8b, 0x4f,
  0x5a, 0x94, 0xa7, 0x99, 0x91, 0x88, 0x72, 0x55, 0x69, 0x9f, 0xa4, 0x8a,
  0x97, 0x51, 0x96, 0xa2, 0x81, 0x83, 0xa5, 0x92, 0x86, 0x7f, 0xa6, 0x95,
  0x7b, 0x7d, 0x7d, 0x95, 0x79, 0x70, 0x77, 0x5e, 0x7e, 0x69, 0xa1, 0x6c,
  0x97, 0x7f, 0x8a, 0x5d, 0x96, 0x7b, 0x85, 0x8e, 0x75, 0x51, 0x96, 0x7d,
  0x92, 0x5c, 0x8b, 0x7c, 0x7c, 0x79, 0x91, 0x6b, 0x50, 0x65, 0x9d, 0x82,
  0x6e, 0x26, 0x91, 0x7b, 0x8e, 0x73, 0x78, 0x66, 0x97, 0x4b, 0xaa, 0x5d,
  0x71, 0x8f, 0x51, 0x7d, 0x72, 0x6c, 0x7e, 0x5d, 0x8c, 0x79, 0x99, 0x59,
  0x73, 0x62, 0x7e, 0x64, 0x6b, 0x8c, 0x7a, 0x73, 0x8f, 0x84, 0x5a, 0x77,
  0x97, 0x8f, 0x7c, 0x86, 0xb8, 0x8d, 0x9e, 0x5f, 0xa4, 0x65, 0xbc, 0x6b,
  0xbf, 0x6e, 0x9d, 0x65, 0xb6, 0x5a, 0xc5, 0x74, 0x9c, 0x85, 0x73, 0x6a,
  0x81, 0x81, 0xdf, 0x92, 0xb3, 0x6d, 0x81, 0x56, 0x74, 0x54, 0xbc, 0x77,
  0xbb, 0x66, 0x75, 0x87, 0x5a, 0x47, 0xd1, 0x78, 0x78, 0x86, 0x75, 0x88,
  0x7e, 0x61, 0xb2, 0x7b, 0x88, 0x67, 0x51, 0x79, 0x6d, 0x84, 0x9b, 0x80,
  0x7a, 0x74, 0x76, 0x77, 0x90, 0x94, 0xa5, 0xa2, 0x84, 0x50, 0x71, 0x64,
  0xa3, 0x82, 0xa6, 0x9e, 0x9e, 0x57, 0x7a, 0x73, 0x9d, 0xa2, 0xa0, 0x89,
  0x92, 0x7a, 0x99, 0x77, 0x7b, 0xb2, 0xa4, 0x79, 0x77, 0x49, 0x6f, 0x65,
  0x7c, 0x70, 0x99, 0x6e, 0x7c, 0x67, 0x95, 0x49, 0x85, 0x92, 0x86, 0x61,
  0x88, 0x5f, 0xb0, 0x59, 0x9e, 0x76, 0x91, 0x58, 0x9c, 0x62, 0x96, 0x30,
  0x90, 0x96, 0xa9, 0x4a, 0x6f, 0x4d, 0x72, 0x41, 0x8f, 0x87, 0x9e, 0x7e,
  0x81, 0x44, 0x95, 0x5e, 0xaa, 0x90, 0x57, 0xa8, 0x94, 0x64, 0x88, 0x50,
  0xb8, 0xa2, 0x83, 0x61, 0x76, 0x49, 0x67, 0x45, 0x7f, 0x7d, 0x8c, 0x72,
  0x85, 0x81, 0x66, 0x52, 0x94, 0x6e, 0x74, 0x97, 0xb4, 0x7e, 0x8d, 0x63,
  0xb3, 0x97, 0xc0, 0x8e, 0x69, 0x6d, 0x91, 0x72, 0x8d, 0x75, 0xbe, 0xac,
  0xcf, 0x92, 0xa3, 0x92, 0xa3, 0x92, 0xce, 0x75, 0xa9, 0x80, 0x6e, 0x86,
  0x6f, 0x62, 0xb2, 0x80, 0xc1, 0x5b, 0x75, 0x83, 0x60, 0x6c, 0xb1, 0x81,
  0xb1, 0x7b, 0x46, 0x66, 0x6d, 0x96, 0x84, 0x79, 0x95, 0x77, 0x73, 0x77,
  0xb7, 0xc5, 0xb0, 0x6f, 0x88, 0x89, 0x5d, 0x69, 0xd3, 0x8d, 0x7f, 0x96,
  0x87, 0x6e, 0xbb, 0x75, 0x9f, 0xa8, 0x9b, 0x7f, 0x97, 0x73, 0x67, 0x63,
  0x98, 0x9e, 0x9d, 0x6e, 0x6e, 0x59, 0x79, 0x7f, 0x84, 0x8f, 0x8e, 0x81,
  0x99, 0x62, 0x57, 0x72, 0x68, 0x4f, 0x90, 0x79, 0x7a, 0x77, 0x59, 0x50,
  0x7b, 0x5b, 0xa0, 0x96, 0x72, 0x5b, 0xac, 0x6d, 0xa7, 0x71, 0xc0, 0x68,
  0x84, 0x6e, 0x8b, 0x6f, 0x77, 0x5d, 0x97, 0x73, 0x85, 0x17, 0x9a, 0x3e,
  0x74, 0x8e, 0xb3, 0x81, 0x9f, 0x6b, 0x7e, 0x80, 0xad, 0x6e, 0x77, 0x9b,
  0x6b, 0x43, 0x9c, 0x5e, 0x9b, 0x58, 0x88, 0x78, 0x84, 0x3b, 0x8b, 0x35,
  0x83, 0x7f, 0x87, 0x44, 0x77, 0x86, 0x78, 0x6a, 0xb5, 0x81, 0x70, 0x85,
  0xb1, 0x61, 0x7f, 0x4a, 0x91, 0x8e, 0x9b, 0x9a, 0x6a, 0xb1, 0x6f, 0x8c,
  0x9e, 0x92, 0xd4, 0x9d, 0xa1, 0x84, 0x6b, 0x72, 0x8c, 0x9c, 0xbf, 0x84,
  0xe2, 0x91, 0x64, 0x5e, 0x7d, 0x3a, 0xbd, 0x91, 0xc5, 0x61, 0x64, 0x86,
  0x5e, 0x50, 0xc4, 0x6e, 0x9c, 0x9f, 0x5d, 0x52, 0xb8, 0x6e, 0x90, 0x57,
  0x67, 0x83, 0x78, 0x63, 0xa0, 0xb7, 0xc1, 0xa2, 0x88, 0xaa, 0x4e, 0x64,
  0xc3, 0xdd, 0xa1, 0x88, 0x84, 0x8c, 0x9c, 0x99, 0xaf, 0xaf, 0xaa, 0x82,
  0xa1, 0x5e, 0x77, 0x5d, 0xae, 0x89, 0x8b, 0x89, 0xab, 0x80, 0x64, 0x6e,
  0x91, 0xa0, 0x99, 0x7c, 0xac, 0x5a, 0x95, 0x5e, 0x89, 0x53, 0x73, 0x97,
  0x79, 0x5d, 0x8c, 0x5e, 0x50, 0x2e, 0x82, 0x75, 0x9a, 0x4a, 0x9c, 0x54,
  0xa3, 0x6e, 0x9c, 0x7c, 0x8e, 0x85, 0xa7, 0x57, 0x85, 0x7f, 0x9c, 0x63,
  0x84, 0x4d, 0x77, 0x6e, 0x7a, 0x6b, 0x92, 0x73, 0x8d, 0x66, 0x9c, 0x66,
  0xb3, 0x92, 0x70, 0x77, 0x87, 0x33, 0xa7, 0x54, 0x64, 0x7d, 0x7a, 0x7a,
  0x8b, 0x7c, 0x83, 0x52, 0x48, 0x7e, 0xa2, 0x6c, 0x6e, 0x78, 0x5d, 0x76,
  0xb8, 0x91, 0x74, 0x9c, 0x77, 0x66, 0x91, 0x8c, 0x8d, 0x76, 0xa9, 0x7b,
  0xb1, 0x7f, 0x8d, 0x63, 0xb6, 0x8b, 0xba, 0x9f, 0xc3, 0x68, 0x86, 0x5f,
  0x79, 0x9d, 0xc4, 0x94, 0xe0, 0x75, 0x62, 0x8b, 0x53, 0x6a, 0xcb, 0x9e,
  0x9f, 0x45, 0x96, 0x86, 0x5d, 0x9f, 0xd3, 0x72, 0xc3, 0xa2, 0x70, 0x6b,
  0xa5, 0x9d, 0x80, 0x60, 0x69, 0x8f, 0x44, 0x66, 0xb0, 0xb7, 0x8a, 0x7a,
  0x71, 0x88, 0x6d, 0x83, 0xe0, 0xbe, 0xaa, 0x9e, 0x9f, 0x77, 0x83, 0x55,
  0xc4, 0xab, 0x9b, 0x95, 0xa7, 0x74, 0x67, 0x85, 0xa1, 0xa5, 0x8e, 0x71,
  0x65, 0x5f, 0x6e, 0x68, 0x7d, 0xac, 0x95, 0x6c, 0x98, 0x9b, 0x53, 0x61,
  0x8c, 0x8c, 0x8f, 0x94, 0x75, 0x81, 0x65, 0x78, 0xa6, 0x55, 0xa5, 0x84,
  0x7b, 0x75, 0x76, 0x40, 0xb0, 0x73, 0x79, 0x8b, 0x71, 0xa4, 0x6f, 0x3f,
  0xd5, 0x9b, 0xb8, 0x5e, 0xae, 0x72, 0x8c, 0x73, 0x93, 0x7a, 0x8d, 0x85,
  0x91, 0x87, 0x87, 0x39, 0x8f, 0x90, 0x70, 0x64, 0x73, 0x6a, 0x7e, 0x52,
  0x60, 0x59, 0x7a, 0x71, 0x90, 0x77, 0x8f, 0x5b, 0xaa, 0x90, 0x94, 0x6b,
  0x89, 0x9a, 0x76, 0x55, 0x93, 0x55, 0x96, 0x9a, 0x83, 0x69, 0x7f, 0x90,
  0xa1, 0x7a, 0xd4, 0x7d, 0x84, 0x9a, 0x6f, 0x6a, 0xc7, 0xab, 0xb7, 0x84,
  0xae, 0x49, 0x99, 0x52, 0x8c, 0xc1, 0xfa, 0x73, 0xee, 0x61, 0x7c, 0x5c,
  0x70, 0x63, 0xd1, 0x86, 0xbb, 0x5c, 0x83, 0x9f, 0x64, 0x96, 0xc7, 0x97,
  0xf4, 0x75, 0x76, 0x95, 0xb6, 0xa4, 0x9c, 0x72, 0x80, 0x9f, 0x50, 0x85,
  0xcd, 0x9f, 0x99, 0x89, 0x8f, 0xb5, 0x69, 0x41, 0xc7, 0xaf, 0x8b, 0xab,
  0xac, 0x76, 0x8a, 0x5a, 0x8b, 0xb0, 0xa9, 0x7b, 0x97, 0x5f, 0x74, 0x5e,
  0xa1, 0x77, 0x8a, 0x64, 0x85, 0x7f, 0x43, 0x3b, 0x94, 0x7a, 0x8f, 0x80,
  0xad, 0x80, 0x6a, 0x4e, 0x8a, 0x4e, 0x66, 0x73, 0x64, 0x93, 0x86, 0x34,
  0xa0, 0x47, 0x65, 0x6d, 0x81, 0x7c, 0x86, 0x37, 0xb8, 0x66, 0x8d, 0x56,
  0x87, 0x80, 0x7a, 0x75, 0xc1, 0x88, 0x95, 0x78, 0x97, 0x4e, 0x99, 0x59,
  0xb6, 0x73, 0x87, 0x77, 0x92, 0x76, 0x88, 0x65, 0x8a, 0x87, 0x7b, 0x6e,
  0x7c, 0x5a, 0xb3, 0x6a, 0xa4, 0x5a, 0x6c, 0x79, 0xa4, 0x70, 0x92, 0x40,
  0xa7, 0x83, 0x8f, 0x78, 0x77, 0x80, 0x65, 0x61, 0x7d, 0x63, 0x95, 0xa3,
  0x88, 0x59, 0x99, 0x4a, 0x7f, 0xad, 0xc2, 0x92, 0xa9, 0x9b, 0x8d, 0x59,
  0xb8, 0xc3, 0xc2, 0xa1, 0xad, 0x62, 0x83, 0x39, 0xa8, 0x9f, 0xf5, 0x84,
  0xd4, 0x45, 0x79, 0x93, 0x64, 0x7b, 0xb6, 0x77, 0xcd, 0x6d, 0x87, 0x80,
  0x67, 0xb5, 0xa9, 0x68, 0xdd, 0x82, 0x6b, 0x7b, 0x9e, 0x9a, 0xb3, 0x79,
  0x8e, 0xa4, 0x62, 0x60, 0xd2, 0xb1, 0xb8, 0x7e, 0x89, 0x95, 0x7d, 0x71,
  0xe4, 0xc8, 0xb1, 0xa3, 0x9f, 0x6a, 0x86, 0x58, 0xbf, 0xa8, 0x95, 0x79,
  0xaa, 0x5d, 0x82, 0x65, 0x84, 0x95, 0xa5, 0x8b, 0x6b, 0x51, 0x65, 0x4b,
  0x6e, 0x8b, 0x96, 0x77, 0x8a, 0x7b, 0x6d, 0x60, 0x92, 0x5c, 0x75, 0x84,
  0x72, 0x9d, 0xa8, 0x6b, 0xae, 0x54, 0x7e, 0x87, 0x7a, 0x7a, 0x86, 0x7b,
  0xd4, 0x88, 0x86, 0x78, 0x89, 0x8d, 0x84, 0x6d, 0xb2, 0x8b, 0xbf, 0x62,
  0x7d, 0x76, 0xad, 0x6d, 0xb9, 0x60, 0x8c, 0x8b, 0x77, 0x68, 0xb3, 0x7e,
  0x97, 0x8f, 0x88, 0x91, 0x4f, 0x75, 0xad, 0x47, 0xa0, 0x67, 0x73, 0x8b,
  0x89, 0x69, 0x70, 0x74, 0xa4, 0x7c, 0x8f, 0x6d, 0x81, 0x97, 0x71, 0x66,
  0x86, 0x48, 0xa4, 0x70, 0x71, 0x57, 0x94, 0x9f, 0xa8, 0xa0, 0xbd, 0x63,
  0xb3, 0x72, 0x81, 0x77, 0x89, 0xc3, 0xce, 0x8a, 0x8d, 0x36, 0x9a, 0x44,
  0xb5, 0xa0, 0xd6, 0x8f, 0xe0, 0x4c, 0x7d, 0x4d, 0x8e, 0x54, 0xb9, 0x8d,
  0xdf, 0x6a, 0xb0, 0x75, 0x7c, 0x8b, 0xa8, 0x9d, 0xd4, 0x57, 0x41, 0x71,
  0xa2, 0xab, 0x99, 0x71, 0x80, 0x9d, 0x69, 0x79, 0xce, 0xb3, 0x97, 0xa7,
  0x90, 0x8c, 0x63, 0x68, 0xe3, 0xaa, 0x7d, 0x7a, 0x8c, 0x85, 0x5c, 0x86,
  0xd1, 0xb2, 0xa2, 0xb6, 0xa3, 0x5d, 0x79, 0x6f, 0x86, 0x81, 0x9c, 0x85,
  0x85, 0x7e, 0x63, 0x51, 0x82, 0x95, 0xb1, 0x8b, 0x98, 0x92, 0x68, 0x65,
  0x7f, 0x85, 0x87, 0x7c, 0xa3, 0x96, 0x96, 0x77, 0x8e, 0x61, 0x7d, 0x76,
  0x5a, 0x6e, 0x9b, 0x67, 0xd0, 0x5c, 0x6f, 0x84, 0x8c, 0x94, 0x64, 0x67,
  0xac, 0x7f, 0x94, 0x82, 0x8c, 0x8b, 0xb6, 0x66, 0xb8, 0x7b, 0x81, 0x87,
  0x9b, 0x7e, 0x9d, 0x72, 0x87, 0x95, 0x7e, 0x9f, 0x97, 0x88, 0xa1, 0x66,
  0x99, 0x84, 0x77, 0x76, 0x79, 0x6c, 0x9b, 0x65, 0xac, 0x8f, 0x84, 0x71,
  0x82, 0x80, 0x87, 0x73, 0xa1, 0x8e, 0xa4, 0x87, 0x9d, 0x57, 0x81, 0x81,
  0xa3, 0x65, 0xa7, 0x86, 0xa5, 0x8b, 0x8c, 0x6b, 0x9f, 0xa5, 0xd4, 0xa1,
  0xa4, 0x53, 0x7d, 0x61, 0x98, 0x81, 0xc8, 0x80, 0xc6, 0x49, 0x9a, 0x6a,
  0x94, 0x7e, 0xd2, 0xa1, 0xde, 0x55, 0x7d, 0x3f, 0x81, 0x96, 0xcc, 0x97,
  0xd8, 0x8d, 0x59, 0x76, 0x94, 0xae, 0xaf, 0x77, 0x69, 0x7a, 0x5d, 0x9f,
  0xb9, 0xce, 0x8c, 0x6d, 0x8b, 0x80, 0x6c, 0x9c, 0xd0, 0xe3, 0x93, 0x78,
  0x85, 0x67, 0x6f, 0x69, 0xa0, 0xb5, 0x86, 0x9a, 0xa5, 0x59, 0x77, 0x76,
  0x9f, 0x7a, 0x88, 0x85, 0xa2, 0x58, 0x7d, 0x81, 0xa5, 0x8f, 0x95, 0x65,
  0x8a, 0xa7, 0x7c, 0x46, 0x9a, 0x43, 0xb2, 0x86, 0x93, 0x8f, 0x62, 0x66,
  0x99, 0x5a, 0x7c, 0x9b, 0x88, 0x71, 0x91, 0x4d, 0xc7, 0x5d, 0x97, 0x73,
  0x66, 0x8e, 0x87, 0x4e, 0xd3, 0x7a, 0x92, 0x62, 0x7d, 0x86, 0x98, 0x5c,
  0xb4, 0x7e, 0x91, 0x78, 0x8d, 0x84, 0xab, 0x8a, 0x9a, 0x78, 0x8a, 0x87,
  0x9f, 0x71, 0xae, 0x6b, 0xa6, 0x9f, 0x9f, 0x94, 0x7c, 0x7e, 0x94, 0x5a,
  0x7b, 0x8d, 0xaa, 0x8f, 0x88, 0x84, 0x74, 0x88, 0x88, 0xaa, 0x6a, 0xa8,
  0xb4, 0x6d, 0x8d, 0x4a, 0x7a, 0x7a, 0xbd, 0x49, 0xa8, 0x8a, 0x71, 0x80,
  0xb5, 0xbc, 0xc1, 0x84, 0xbf, 0x47, 0x69, 0x44, 0xa6, 0xad, 0xcb, 0x98,
  0xc9, 0x1f, 0x6b, 0x8b, 0x83, 0x9a, 0xbc, 0x87, 0xc3, 0x50, 0x9f, 0x59,
  0x6e, 0xb5, 0xa8, 0x76, 0xad, 0x77, 0x51, 0x6e, 0x9e, 0xb1, 0xa5, 0x98,
  0x6f, 0x79, 0x66, 0x74, 0xcd, 0xe7, 0x99, 0xaa, 0x7f, 0x8e, 0x6b, 0x5a,
  0xb9, 0xb8, 0xbb, 0x83, 0x95, 0x67, 0x5b, 0x49, 0xb3, 0x94, 0x92, 0x86,
  0xa1, 0x51, 0x75, 0x58, 0x99, 0x71, 0x92, 0x7d, 0xaf, 0x65, 0x8f, 0x89,
  0x97, 0x75, 0xae, 0x75, 0x88, 0x86, 0x97, 0x43, 0x87, 0x79, 0x7f, 0x9b,
  0x77, 0x77, 0x86, 0x86, 0x9e, 0x5f, 0x7e, 0x56, 0x82, 0x6d, 0x6c, 0x6d,
  0xb4, 0x8f, 0x9b, 0x80, 0x8f, 0x82, 0x8e, 0x6d, 0xd3, 0x6e, 0x84, 0x74,
  0xa4, 0x89, 0x81, 0x63, 0xbc, 0x75, 0x88, 0x93, 0x84, 0x8a, 0x9a, 0x7d,
  0xa2, 0x7a, 0x7a, 0x95, 0x9a, 0x63, 0x93, 0x64, 0x77, 0x82, 0x7a, 0x84,
  0x77, 0x7a, 0xa8, 0x74, 0x52, 0xa1, 0x7c, 0x76, 0x8c, 0x86, 0x93, 0x66,
  0xaa, 0x7a, 0x83, 0x97, 0xba, 0x4e, 0x97, 0x8f, 0x84, 0x85, 0xdb, 0x82,
  0xbd, 0x74, 0x80, 0x6e, 0x94, 0xb4, 0xe5, 0x80, 0xbd, 0x29, 0x59, 0x73,
  0x97, 0xa3, 0xc2, 0x8a, 0xca, 0x33, 0x65, 0x4a, 0xa5, 0x8a, 0xd7, 0x7a,
  0xc9, 0x2f, 0x93, 0x71, 0x7d, 0x97, 0xc0, 0x88, 0xb8, 0x62, 0x6e, 0x7b,
  0x9c, 0xa8, 0x8c, 0xa0, 0x93, 0x96, 0x77, 0x6c, 0xcd, 0xd4, 0x95, 0x88,
  0x93, 0xa0, 0x6d, 0x85, 0xa8, 0xa5, 0xaf, 0x89, 0x95, 0x71, 0x65, 0x69,
  0x98, 0xa3, 0x94, 0x7c, 0x9f, 0x58, 0xb0, 0x5d, 0x90, 0x8c, 0x88, 0x89,
  0x73, 0x58, 0x6b, 0x60, 0x80, 0x92, 0xa3, 0x89, 0x81, 0x71, 0x57, 0x52,
  0xae, 0x7b, 0xa3, 0xa7, 0x69, 0x94, 0x72, 0x76, 0x9a, 0x63, 0x73, 0xae,
  0x8f, 0x69, 0xa1, 0x46, 0xc1, 0x6c, 0x94, 0xb3, 0x82, 0x71, 0x80, 0x73,
  0xc2, 0x73, 0xa1, 0x85, 0x7d, 0x6a, 0x8a, 0x58, 0x9e, 0x76, 0x9a, 0x9e,
  0x58, 0x79, 0xb3, 0x76, 0x74, 0x6b, 0x72, 0x9f, 0x6a, 0xa6, 0x97, 0x6f,
  0x76, 0x94, 0x8c, 0x86, 0x82, 0x79, 0x88, 0x50, 0x87, 0x8f, 0x92, 0x70,
  0x8c, 0xb4, 0x7e, 0x88, 0xaa, 0xa9, 0x74, 0x8d, 0x93, 0x49, 0x9c, 0x5e,
  0x72, 0xab, 0xb2, 0x8e, 0xae, 0x91, 0x4a, 0x7b, 0x8c, 0xae, 0xcd, 0x72,
  0xb8, 0x34, 0x86, 0x6d, 0xa8, 0xb4, 0xd4, 0x6f, 0xdd, 0x41, 0x62, 0x78,
  0x7f, 0xa9, 0xbe, 0x7f, 0xb2, 0x3b, 0x65, 0x5f, 0x7a, 0x8a, 0xab, 0x71,
  0xb8, 0x4b, 0x67, 0x70, 0x94, 0xa8, 0xba, 0x91, 0x71, 0xb0, 0x73, 0x5f,
  0xa0, 0xd2, 0xa4, 0x94, 0x82, 0x8f, 0x4f, 0x5c, 0xb1, 0xc1, 0x91, 0x82,
  0x97, 0x65, 0x3c, 0x52, 0x91, 0x9b, 0x98, 0xb6, 0xa0, 0x4f, 0x78, 0x8c,
  0xa2, 0x65, 0xa6, 0x95, 0xbf, 0x62, 0x85, 0x5c, 0x7c, 0x75, 0x96, 0x82,
  0x8e, 0xa0, 0x71, 0x78, 0xa8, 0x91, 0x5f, 0xb8, 0x91, 0x8f, 0x92, 0x6b,
  0x95, 0x49, 0x6e, 0xa9, 0x6d, 0x6c, 0x6a, 0x52, 0xce, 0x3d, 0xa2, 0x82,
  0x8b, 0x73, 0x97, 0x8b, 0xc8, 0x68, 0x79, 0x9c, 0x91, 0x60, 0xc4, 0x63,
  0xa9, 0x96, 0x70, 0x95, 0x7f, 0x82, 0x84, 0x6a, 0x66, 0x83, 0x6f, 0x76,
  0x86, 0x81, 0x8f, 0x83, 0x99, 0x72, 0x95, 0x92, 0x70, 0xa3, 0xa8, 0x75,
  0x94, 0x83, 0x85, 0x92, 0x88, 0x8f, 0x86, 0x80, 0x7f, 0x62, 0x5f, 0x85,
  0x89, 0x54, 0x68, 0xb4, 0x9b, 0xa4, 0xb0, 0x55, 0xa7, 0x79, 0x83, 0x63,
  0xa8, 0xaa, 0xde, 0x9e, 0xd4, 0x59, 0x7e, 0x98, 0x76, 0x96, 0xc3, 0x95,
  0xc5, 0x36, 0x6e, 0x58, 0x92, 0x66, 0xb4, 0x8c, 0xa4, 0x45, 0x6a, 0x88,
  0x7e, 0x94, 0xcf, 0x97, 0xc9, 0x6e, 0x64, 0x75, 0xa6, 0xc9, 0x86, 0x7b,
  0x77, 0x8d, 0x87, 0x93, 0xb5, 0xe0, 0xb7, 0x9e, 0xaa, 0x99, 0x54, 0xae,
  0xba, 0xde, 0x9e, 0x8f, 0x74, 0x56, 0x45, 0x61, 0x9f, 0xa4, 0x9a, 0x90,
  0x91, 0x6c, 0x80, 0x6c, 0x8f, 0x9c, 0xa4, 0x7e, 0xa9, 0x6a, 0x4a, 0x5d,
  0xaa, 0x61, 0x94, 0x6f, 0xbb, 0x85, 0x72, 0x4c, 0xa7, 0x76, 0x87, 0x90,
  0x8d, 0x97, 0x6a, 0x8c, 0xbe, 0x6c, 0x75, 0x5f, 0x6b, 0x5c, 0x92, 0x62,
  0xa7, 0x79, 0x8f, 0xb9, 0x95, 0x67, 0x8e, 0x7b, 0xbf, 0x5a, 0x97, 0x9a,
  0x91, 0x74, 0x92, 0x73, 0x9a, 0xa1, 0x8f, 0x82, 0x75, 0x8b, 0xa6, 0x52,
  0x77, 0x71, 0x57, 0x66, 0x82, 0x7e, 0x77, 0x65, 0x78, 0x5d, 0xa3, 0x7c,
  0x66, 0x81, 0xb2, 0x6a, 0xac, 0xa4, 0x76, 0x88, 0x79, 0x76, 0x99, 0x7a,
  0x78, 0x6b, 0x66, 0x7e, 0xa8, 0x55, 0x69, 0x62, 0x8f, 0x7c, 0x9c, 0x79,
  0x71, 0x73, 0x78, 0x9c, 0xb0, 0x6c, 0xcd, 0xa0, 0xc2, 0x2f, 0x87, 0x61,
  0xc2, 0xb1, 0xca, 0x9e, 0xe8, 0x4e, 0x63, 0x6d, 0x9d, 0x8c, 0xcb, 0x7f,
  0xbd, 0x51, 0x5d, 0x6c, 0x98, 0xb3, 0xab, 0x82, 0xb2, 0x3d, 0x69, 0x85,
  0x8c, 0x9f, 0xba, 0x9a, 0x81, 0xaa, 0x5b, 0x57, 0xdc, 0xdd, 0x99, 0x87,
  0xa2, 0xb0, 0x6f, 0x7e, 0xa6, 0xb5, 0xce, 0x9b, 0x82, 0x7c, 0x77, 0x87,
  0x9f, 0x94, 0x8f, 0x92, 0xbb, 0x53, 0x9a, 0x7b, 0xa9, 0xa3, 0xbd, 0xa2,
  0x94, 0x50, 0x59, 0x72, 0xa1, 0xb9, 0x5f, 0x93, 0x97, 0x6a, 0x72, 0x62,
  0x8e, 0x66, 0x8c, 0x89, 0x70, 0x7c, 0x7c, 0x8f, 0x9b, 0x54, 0x96, 0x79,
  0x50, 0x79, 0x82, 0x5f, 0xb1, 0x84, 0x96, 0x96, 0x88, 0x66, 0x68, 0x57,
  0xa7, 0x6d, 0x8d, 0x88, 0xb9, 0x6e, 0x8f, 0x73, 0x8a, 0x93, 0xa4, 0x95,
  0x74, 0xa8, 0x6c, 0x71, 0x9c, 0x83, 0x7f, 0x43, 0x8b, 0x77, 0x62, 0x77,
  0x63, 0x78, 0xad, 0x74, 0xa3, 0x97, 0x9b, 0x91, 0x81, 0x8c, 0x81, 0x94,
  0x8c, 0xac, 0x93, 0x8b, 0xa0, 0x6e, 0x9e, 0x8f, 0xb5, 0x39, 0x63, 0x8f,
  0x75, 0xbf, 0xce, 0x6a, 0x85, 0x6f, 0x81, 0x93, 0xaf, 0x9e, 0x9d, 0x79,
  0xcd, 0x2c, 0x90, 0x70, 0xb1, 0x98, 0xd2, 0x61, 0xed, 0x32, 0x81, 0x92,
  0x91, 0xb2, 0xa6, 0xa4, 0xb0, 0x37, 0x63, 0x7d, 0x89, 0xa4, 0x93, 0xa9,
  0xa1, 0x87, 0x5e, 0x58, 0xa6, 0x79, 0xa6, 0xb0, 0x91, 0xb0, 0x6e, 0xa5,
  0xc1, 0xc6, 0xb8, 0x88, 0x6d, 0x92, 0x64, 0x8b, 0xa2, 0xbf, 0xa6, 0xb2,
  0x82, 0x84, 0x64, 0x66, 0x86, 0x91, 0xa3, 0x76, 0xba, 0x44, 0x90, 0x71,
  0x9f, 0x99, 0xb1, 0x93, 0xa6, 0x64, 0x5a, 0x61, 0x6d, 0xbf, 0x69, 0x91,
  0xb6, 0x90, 0x73, 0x6b, 0x7c, 0x80, 0x6c, 0xb7, 0x60, 0xa5, 0x50, 0x75,
  0x9a, 0x6f, 0x6f, 0x93, 0x50, 0x67, 0x80, 0x68, 0xd1, 0x60, 0x70, 0x9d,
  0x97, 0x6e, 0x6b, 0x96, 0xbe, 0x5a, 0x85, 0x93, 0x87, 0x7b, 0x6f, 0x54,
  0xb6, 0x9e, 0x94, 0x88, 0xae, 0x97, 0x67, 0x75, 0x9c, 0xa6, 0x82, 0x76,
  0x7f, 0x89, 0x7f, 0x83, 0xad, 0x90, 0x91, 0x8e, 0x84, 0x81, 0x89, 0x8c,
  0x83, 0xa7, 0x9b, 0xa6, 0x9e, 0x84, 0x9d, 0x78, 0x79, 0x98, 0x85, 0x72,
  0x9f, 0x27, 0x53, 0xab, 0x7b, 0x73, 0x6f, 0x7f, 0x92, 0x66, 0x63, 0x5f,
  0xb0, 0xa0, 0xae, 0x9b, 0x8b, 0x32, 0x7b, 0x61, 0x9f, 0x92, 0xe0, 0x8e,
  0xf5, 0x35, 0x52, 0x70, 0xb0, 0xad, 0xc8, 0xa6, 0xce, 0x72, 0x76, 0x77,
  0x8d, 0x88, 0xb6, 0xa7, 0xb9, 0x5f, 0x80, 0x5d, 0x88, 0xab, 0x7f, 0x93,
  0x62, 0x8b, 0x62, 0x75, 0xaf, 0xd3, 0xb5, 0xb0, 0x78, 0x9e, 0x68, 0xba,
  0xd0, 0xa5, 0xcb, 0x86, 0x4b, 0x8e, 0x7e, 0x8b, 0x92, 0xb4, 0x9a, 0xa7,
  0xa4, 0x5e, 0x5e, 0x6d, 0xbc, 0x8f, 0x7f, 0x8d, 0x94, 0x6d, 0x74, 0x78,
  0xad, 0x97, 0x5c, 0x7e, 0xba, 0x88, 0x64, 0x77, 0x86, 0x88, 0x54, 0x8d,
  0x61, 0x73, 0x83, 0x60, 0x97, 0x61, 0x72, 0x7f, 0x79, 0x74, 0xa6, 0x89,
  0x9a, 0x76, 0x82, 0x90, 0x73, 0x6b, 0x76, 0x7e, 0xba, 0x49, 0x7a, 0xc5,
  0xa8, 0x80, 0x71, 0x63, 0x8d, 0x94, 0x78, 0x98, 0xaf, 0x74, 0x92, 0x50,
  0x8a, 0x87, 0x87, 0x7f, 0x95, 0x87, 0x7e, 0x59, 0xa6, 0x69, 0x89, 0x8a,
  0xab, 0x93, 0x6f, 0x50, 0xa8, 0x85, 0x94, 0x95, 0xa3, 0x91, 0xc1, 0x93,
  0x78, 0x7c, 0x84, 0x58, 0x5f, 0x1d, 0x77, 0x91, 0x72, 0x98, 0xa7, 0x5d,
  0x72, 0x47, 0x95, 0x51, 0x8d, 0xa6, 0x9e, 0x8b, 0xa7, 0x3a, 0xa8, 0x7b,
  0xa5, 0xa4, 0xe4, 0x95, 0xaf, 0x09, 0x87, 0x34, 0x8f, 0x8e, 0xb0, 0x88,
  0xc6, 0x4d, 0x80, 0x5d, 0x9b, 0x96, 0xc0, 0xa0, 0x90, 0x68, 0x7f, 0x6b,
  0x9e, 0x9e, 0x97, 0x85, 0x80, 0xb5, 0x57, 0x92, 0xb5, 0xd4, 0xbc, 0x8a,
  0xaa, 0xa3, 0x6c, 0x76, 0xa9, 0x9b, 0x96, 0x90, 0x76, 0x87, 0x78, 0x88,
  0x8a, 0x8d, 0x97, 0x9c, 0xb3, 0x67, 0x67, 0x67, 0xa2, 0x93, 0x81, 0x7e,
  0x97, 0x7d, 0x50, 0x6d, 0x92, 0x79, 0x68, 0x78, 0xa5, 0x86, 0x65, 0x38,
  0x8d, 0x79, 0x7f, 0xa7, 0x4e, 0x5d, 0x6c, 0x4c, 0x7a, 0x59, 0x80, 0x9e,
  0x5a, 0x61, 0x5e, 0x73, 0xc7, 0x6e, 0x93, 0x8b, 0x94, 0x6b, 0x76, 0x7d,
  0xb8, 0x84, 0x81, 0x9f, 0x86, 0x84, 0x7a, 0x70, 0xbb, 0x9c, 0x81, 0x80,
  0x5f, 0x92, 0x8c, 0x9a, 0x82, 0xa4, 0x7c, 0x61, 0xa2, 0x7d, 0x7c, 0x54,
  0x85, 0x95, 0xa1, 0x9a, 0x7d, 0x6e, 0xa6, 0x48, 0x65, 0x9a, 0xab, 0xa0,
  0x9a, 0x9b, 0xa3, 0x6b, 0x80, 0x97, 0x6e, 0x71, 0x7b, 0x05, 0x79, 0x7e,
  0x7f, 0x6f, 0x64, 0x78, 0xa1, 0x3b, 0x8e, 0x5d, 0x9d, 0x8b, 0xa2, 0x96,
  0x86, 0x24, 0x9e, 0x5f, 0x71, 0xb3, 0xdc, 0x87, 0xdc, 0x23, 0x97, 0x95,
  0x9a, 0x80, 0xd1, 0x71, 0xbc, 0x44, 0x77, 0x68, 0x9c, 0x7f, 0xb9, 0x91,
  0x88, 0x6c, 0x7b, 0x72, 0xa6, 0x8f, 0x8c, 0x75, 0xa2, 0xab, 0x8c, 0x7d,
  0xb2, 0xa2, 0xb8, 0x9b, 0xbc, 0x89, 0x70, 0x74, 0xbb, 0xcb, 0x8e, 0x85,
  0x95, 0x58, 0x7b, 0x67, 0x83, 0x88, 0x87, 0x8b, 0x6a, 0x64, 0x8b, 0x66,
  0x91, 0xa7, 0xab, 0x7b, 0x80, 0x5f, 0x5b, 0x84, 0x9e, 0x7d, 0x85, 0x76,
  0x82, 0x65, 0x78, 0x68, 0xaa, 0x78, 0x66, 0x96, 0x64, 0x7c, 0x8f, 0x66,
  0x97, 0x7a, 0x94, 0x98, 0x66, 0x87, 0x88, 0x82, 0xb0, 0x82, 0x88, 0xa5,
  0x74, 0x79, 0x7f, 0x98, 0x9e, 0x7d, 0x88, 0x86, 0x9d, 0x8f, 0x94, 0x87,
  0xa1, 0x72, 0x83, 0x3e, 0x7f, 0x8e, 0x68, 0x5b, 0xb3, 0xa8, 0x9a, 0x6f,
  0xba, 0x81, 0x67, 0x55, 0x99, 0x74, 0x96, 0x8b, 0x7d, 0x8f, 0x7e, 0x7f,
  0x6d, 0xa4, 0x74, 0x60, 0x7b, 0x7f, 0x7a, 0x8e, 0x87, 0x62, 0x94, 0x69,
  0xb1, 0x21, 0x87, 0x8b, 0x8f, 0xad, 0x70, 0x96, 0x93, 0x48, 0x7f, 0x67,
  0xae, 0xac, 0xa5, 0xaa, 0x9c, 0x29, 0xa0, 0x7b, 0x8f, 0x8e, 0xd9, 0x93,
  0xc7, 0x32, 0x88, 0x63, 0x8d, 0xad, 0xa9, 0xbc, 0xba, 0x73, 0x88, 0x6f,
  0xbf, 0x62, 0xa4, 0x8b, 0xa2, 0x6d, 0x78, 0x96, 0xa5, 0x8d, 0xb3, 0xa6,
  0x95, 0x95, 0x69, 0x92, 0xa4, 0xb5, 0xb7, 0x9b, 0xc2, 0x97, 0x5d, 0x82,
  0xdd, 0x94, 0xa0, 0xa3, 0x76, 0x7b, 0x83, 0x89, 0x7f, 0x92, 0x68, 0x8d,
  0xb8, 0x69, 0x92, 0x7f, 0xcf, 0x73, 0x96, 0x8d, 0x9a, 0x5e, 0x7e, 0x83,
  0x9e, 0x76, 0x78, 0x8d, 0x95, 0x6c, 0x73, 0x6f, 0xa4, 0x4a, 0x82, 0x7b,
  0x74, 0x70, 0x6b, 0x77, 0x74, 0x61, 0x8f, 0xb4, 0x99, 0x7d, 0x5d, 0x78,
  0xb7, 0x89, 0x86, 0x90, 0x7a, 0x68, 0x9b, 0x91, 0xc2, 0x70, 0xa5, 0xa2,
  0xc1, 0x83, 0x76, 0xa8, 0xab, 0x77, 0x70, 0x76, 0x80, 0x95, 0x70, 0xa9,
  0xb5, 0x75, 0x94, 0x92, 0x80, 0xa2, 0xa3, 0x8f, 0x5a, 0x7b, 0x78, 0x97,
  0x6f, 0x81, 0x85, 0x74, 0x7a, 0x73, 0x8e, 0x7d, 0x87, 0x81, 0x9b, 0x81,
  0x7d, 0x86, 0x5c, 0x6e, 0x96, 0x21, 0x83, 0x72, 0x59, 0x6a, 0x48, 0xa5,
  0xb2, 0x32, 0x8d, 0x84, 0x81, 0xaf, 0xb4, 0xb8, 0xb2, 0x20, 0x7f, 0x83,
  0x93, 0x8c, 0xb8, 0xa3, 0x8c, 0x44, 0xa9, 0x72, 0x80, 0x84, 0xaa, 0x9f,
  0x9c, 0x4e, 0x6c, 0x81, 0x9f, 0xb8, 0xb8, 0x7f, 0xa3, 0x80, 0x82, 0x7e,
  0x86, 0x96, 0xa2, 0x7f, 0x57, 0xa7, 0x9e, 0x77, 0xab, 0xbb, 0xce, 0x8b,
  0x9a, 0x7f, 0x79, 0x7f, 0x98, 0x7d, 0xaa, 0x9b, 0x82, 0x9b, 0x5d, 0xa2,
  0x89, 0x7f, 0xc2, 0x9d, 0x7e, 0x78, 0x9c, 0x96, 0xa1, 0x92, 0x90, 0x82,
  0xa2, 0x70, 0x77, 0x7f, 0x88, 0x6d, 0x9a, 0x91, 0x68, 0x67, 0x9b, 0x89,
  0x74, 0x4e, 0x66, 0x92, 0x72, 0x7a, 0x7b, 0x71, 0xa0, 0x80, 0x6d, 0x86,
  0x76, 0x70, 0x91, 0xa0, 0x9b, 0x7c, 0x8b, 0x8f, 0x8f, 0x86, 0x6b, 0x6f,
  0xae, 0x86, 0xab, 0xa1, 0xa3, 0x91, 0x88, 0x57, 0xac, 0x7e, 0x9b, 0x99,
  0xa0, 0xb4, 0x83, 0xa7, 0x90, 0x8f, 0x7f, 0xa1, 0x83, 0x83, 0x87, 0x73,
  0xa2, 0x76, 0x7a, 0x91, 0x8d, 0x93, 0xa7, 0x7e, 0x5c, 0x89, 0x83, 0xa3,
  0x93, 0x76, 0x75, 0x91, 0x45, 0x76, 0x9a, 0x73, 0x72, 0x5c, 0x90, 0x9a,
  0x58, 0x60, 0x82, 0x8e, 0x7d, 0x12, 0x8c, 0x62, 0x75, 0x70, 0xa1, 0x88,
  0x96, 0x23, 0x80, 0x95, 0x81, 0x88, 0x8b, 0x7c, 0x74, 0x24, 0x8d, 0x91,
  0xa5, 0xb6, 0x7d, 0x81, 0x6c, 0x42, 0x87, 0x6c, 0x89, 0x7c, 0x6f, 0x7f,
  0x65, 0x7a, 0x89, 0x79, 0x90, 0xa6, 0x9d, 0x7d, 0x6a, 0x6f, 0x80, 0x60,
  0x66, 0xb8, 0x83, 0x6f, 0x83, 0x7e, 0x90, 0x94, 0x77, 0x7c, 0xa1, 0x88,
  0xa6, 0x75, 0x5b, 0x9a, 0x98, 0x83, 0x85, 0x61, 0x7c, 0x52, 0x80, 0x5b,
  0x94, 0x80, 0x9e, 0x9e, 0x67, 0x2c, 0x75, 0x9a, 0x8d, 0x70, 0x94, 0x8c,
  0x78, 0x80, 0x87, 0xa9, 0x7e, 0xad, 0x93, 0x80, 0x7d, 0x87, 0x91, 0xb0,
  0x8c, 0x75, 0x6e, 0xa9, 0x4e, 0x5e, 0xa7, 0x8f, 0x7c, 0x90, 0x6e, 0x78,
  0x8d, 0x4e, 0x83, 0x8d, 0x7b, 0x9c, 0xb2, 0x84, 0x6c, 0x7b, 0x86, 0x9a,
  0x8b, 0x9e, 0xac, 0xac, 0x9f, 0x84, 0x7b, 0x95, 0x9f, 0x88, 0x98, 0xae,
  0xa6, 0x9b, 0x9a, 0x92, 0x87, 0x8d, 0x91, 0x9f, 0x8c, 0x84, 0x7c, 0x94,
  0x9f, 0x71, 0x81, 0x84, 0x81, 0x6c, 0x84, 0x90, 0x8a, 0x6a, 0x54, 0x7b,
  0x48, 0x6e, 0x6a, 0x82, 0x6c, 0x63, 0x4f, 0x99, 0x77, 0x6d, 0x80, 0x7a,
  0x82, 0x85, 0x3c, 0xa0, 0x3c, 0x88, 0x71, 0xa7, 0x80, 0x8f, 0x7b, 0x5d,
  0x82, 0x8b, 0xa3, 0x95, 0x50, 0x67, 0x62, 0xaa, 0x63, 0xa7, 0x95, 0x77,
  0xaa, 0x88, 0x64, 0x8d, 0x54, 0x78, 0x69, 0x9d, 0x5c, 0xb6, 0x7d, 0x9f,
  0x7e, 0x97, 0x8d, 0x8e, 0x6e, 0x5a, 0x72, 0x99, 0x75, 0x97, 0x64, 0x95,
  0x9f, 0x6f, 0x5f, 0x9f, 0x63, 0xa2, 0x77, 0x74, 0xb7, 0x62, 0x6c, 0x63,
  0x9a, 0x9e, 0x8f, 0x9e, 0x99, 0x9b, 0x6f, 0x6c, 0x6f, 0x98, 0x8d, 0x84,
  0x7b, 0x77, 0x48, 0x6c, 0x75, 0xb4, 0x79, 0x8c, 0xae, 0x80, 0x75, 0x74,
  0x48, 0x86, 0x57, 0x8f, 0x8d, 0x9d, 0x6e, 0x82, 0x84, 0x9e, 0xae, 0x81,
  0xa7, 0xab, 0x72, 0x89, 0x9b, 0xa4, 0x84, 0x74, 0xae, 0x70, 0x97, 0xab,
  0x89, 0x7e, 0x88, 0x92, 0x7d, 0xba, 0x70, 0x83, 0x9a, 0x87, 0x83, 0x6e,
  0x74, 0x96, 0x73, 0x71, 0x59, 0x64, 0xa8, 0x91, 0x84, 0x8a, 0x86, 0x8e,
  0x7c, 0xa1, 0x8e, 0x6c, 0x94, 0x6e, 0x86, 0xb6, 0x8e, 0x8c, 0x82, 0x9d,
  0x55, 0x85, 0x57, 0x74, 0x71, 0x8c, 0xa7, 0x80, 0x87, 0x6e, 0x66, 0x50,
  0x46, 0x9c, 0x78, 0x74, 0x8b, 0x81, 0x8b, 0x58, 0x67, 0x96, 0xb5, 0x8f,
  0x54, 0x91, 0xa2, 0x65, 0xb3, 0x92, 0x87, 0x6a, 0x59, 0x66, 0x81, 0x75,
  0x7d, 0x81, 0x76, 0x52, 0x86, 0x7d, 0x82, 0x80, 0x91, 0x80, 0x85, 0x7f,
  0x8d, 0x5d, 0xb7, 0x6f, 0x75, 0x94, 0x80, 0x6c, 0x95, 0x78, 0x7b, 0x99,
  0x8b, 0x83, 0x7c, 0x53, 0x73, 0x58, 0x94, 0x95, 0x81, 0x87, 0x54, 0x5d,
  0x83, 0x73, 0xa1, 0xa5, 0x7a, 0x8e, 0x72, 0x8e, 0x69, 0x5c, 0x7e, 0x66,
  0x8d, 0x8d, 0x8c, 0x8a, 0x9c, 0xb2, 0x76, 0x72, 0x7c, 0x79, 0x73, 0xb3,
  0x7d, 0x54, 0x83, 0xaa, 0x77, 0x95, 0x8d, 0x86, 0x67, 0x65, 0x6f, 0x69,
  0x6a, 0x9e, 0x71, 0x67, 0x96, 0x54, 0x97, 0x5e, 0x91, 0x9d, 0x54, 0x67,
  0x9f, 0x64, 0x7b, 0xaa, 0xb2, 0xb2, 0x97, 0x5f, 0x82, 0x87, 0x86, 0xa7,
  0x9d, 0x80, 0x7d, 0x93, 0x7d, 0x9c, 0x76, 0x8d, 0x87, 0x99, 0xa1, 0x83,
  0x6a, 0xbc, 0x78, 0x72, 0x87, 0x76, 0x8a, 0x9f, 0x7d, 0x9d, 0xab, 0x86,
  0x9a, 0x8e, 0x52, 0x78, 0x74, 0x60, 0x90, 0x59, 0x6f, 0x97, 0x5e, 0x82,
  0x91, 0x86, 0x5f, 0x70, 0xb7, 0x8c, 0x98, 0x84, 0x63, 0x9a, 0x7d, 0x47,
  0x5b, 0x86, 0xa2, 0x6f, 0x8b, 0xab, 0xa4, 0x66, 0x90, 0xb4, 0x83, 0x5e,
  0x92, 0xca, 0xad, 0x9f, 0x76, 0x91, 0xa5, 0x7f, 0x64, 0x7a, 0x96, 0x95,
  0x80, 0xb1, 0xb0, 0x91, 0xbb, 0x7f, 0xae, 0xa5, 0x86, 0xb4, 0x77, 0xa8,
  0xaa, 0x7b, 0x99, 0xd3, 0x7e, 0xae, 0x93, 0x93, 0xc6, 0x9a, 0x73, 0xc6,
  0x87, 0xad, 0x9c, 0xaf, 0x7e, 0x62, 0x9a, 0x8c, 0x9a, 0xa6, 0x97, 0x7e,
  0xb6, 0x8e, 0xad, 0xa1, 0x81, 0xab, 0x84, 0x9e, 0x90, 0x6d, 0x9c, 0x95,
  0x7b, 0x89, 0x97, 0x55, 0x87, 0x61, 0x70, 0xb6, 0xa2, 0x8f, 0x7a, 0x59,
  0x8b, 0xaa, 0x80, 0x6d, 0x7c, 0x87, 0x6f, 0x74, 0x56, 0xa2, 0xaa, 0x7c,
  0x7f, 0xa6, 0x8e, 0x7a, 0x6b, 0xbc, 0x76, 0x6b, 0xb5, 0xb9, 0x6d, 0xa8,
  0x86, 0xa2, 0x7e, 0x81, 0x8f, 0x99, 0x62, 0x94, 0x59, 0x73, 0x75, 0xa4,
  0x78, 0x9b, 0x69, 0x57, 0x66, 0x8e, 0x8c, 0x89, 0x77, 0x90, 0x77, 0x82,
  0xb4, 0x85, 0x81, 0x4f, 0x86, 0x8e, 0x62, 0x9a, 0x85, 0xa4, 0x7f, 0x6c,
  0x7d, 0x58, 0x55, 0xbb, 0x83, 0x52, 0x78, 0x90, 0x93, 0x65, 0x7b, 0x68,
  0x60, 0x77, 0x77, 0x71, 0x9f, 0x9e, 0x8f, 0x73, 0x73, 0xaf, 0xa4, 0x8a,
  0xa5, 0x8f, 0x6b, 0x9c, 0xa7, 0xc6, 0x93, 0x91, 0x84, 0x8b, 0x87, 0x98,
  0x8c, 0x9c, 0x72, 0xbb, 0x8f, 0x9d, 0xc6, 0x96, 0x98, 0x97, 0xa9, 0xa5,
  0x98, 0xc5, 0x91, 0x86, 0xb5, 0x76, 0x94, 0xbc, 0x76, 0xae, 0x97, 0xac,
  0x9c, 0x89, 0x85, 0x94, 0xad, 0x9d, 0x9e, 0xa7, 0x94, 0x85, 0x7f, 0xa5,
  0xa5, 0x7f, 0xac, 0x78, 0xa0, 0x7f, 0xaa, 0x8f, 0x81, 0x92, 0xa1, 0x7b,
  0x9e, 0x6f, 0x82, 0x99, 0x86, 0xa9, 0x8c, 0xad, 0x6e, 0x89, 0x98, 0x8f,
  0x79, 0x87, 0x6a, 0x98, 0x71, 0x94, 0x72, 0x79, 0x8e, 0xae, 0x6e, 0xba,
  0x64, 0xa3, 0x86, 0xa5, 0x77, 0x84, 0x7d, 0x84, 0x7e, 0x90, 0x95, 0xa6,
  0x9b, 0xad, 0x78, 0x82, 0x75, 0x83, 0x86, 0x70, 0x8d, 0xa8, 0x64, 0xb8,
  0x6c, 0xa0, 0x7d, 0x81, 0xa6, 0x9e, 0x42, 0x75, 0x8f, 0x90, 0x9b, 0x7a,
  0x96, 0x91, 0x6d, 0x91, 0xa4, 0x77, 0x97, 0x8d, 0x84, 0x8b, 0x8b, 0x5f,
  0x7b, 0x6f, 0x81, 0x8b, 0x7e, 0x55, 0x66, 0xad, 0x80, 0x9a, 0x67, 0xad,
  0x7e, 0x5c, 0x83, 0x72, 0x60, 0x6d, 0x57, 0xa0, 0x7a, 0x80, 0x94, 0x95,
  0x7e, 0xde, 0x8d, 0xab, 0xa0, 0x58, 0x98, 0x83, 0xbd, 0xd5, 0x98, 0xaa,
  0x71, 0x74, 0x90, 0x92, 0x9a, 0xc0, 0x9a, 0xad, 0x7a, 0x83, 0xc4, 0x9b,
  0x8c, 0x7b, 0xaa, 0xa8, 0xa8, 0x69, 0x8e, 0x8e, 0x83, 0x91, 0x95, 0x98,
  0x88, 0x8c, 0xaf, 0xa8, 0x6e, 0x7e, 0xa8, 0x96, 0x9d, 0x9e, 0x8e, 0x82,
  0x71, 0x69, 0x9a, 0x8d, 0x99, 0x81, 0x92, 0x9c, 0xb2, 0x83, 0xaf, 0x9f,
  0x8c, 0x8b, 0x6a, 0x87, 0x71, 0x87, 0x74, 0xa2, 0x70, 0x95, 0xb2, 0x88,
  0x73, 0xa6, 0x88, 0x74, 0xc3, 0x84, 0x71, 0x92, 0x83, 0xc1, 0x87, 0x7e,
  0x89, 0x8f, 0x57, 0xb8, 0x70, 0x87, 0x99, 0x83, 0x89, 0x9f, 0x5a, 0xa9,
  0x6a, 0x81, 0x9f, 0x99, 0x8e, 0x93, 0x66, 0xbe, 0x86, 0x7f, 0x87, 0x76,
  0x95, 0x92, 0x76, 0xb6, 0x60, 0xa1, 0x85, 0x6c, 0x83, 0x9d, 0x3d, 0x8f,
  0x53, 0x90, 0x9b, 0x79, 0x74, 0x87, 0x73, 0x88, 0xac, 0x93, 0x7c, 0x88,
  0x90, 0x7f, 0x77, 0x64, 0x82, 0x65, 0x62, 0x7f, 0x8f, 0x53, 0x82, 0x57,
  0x97, 0x5b, 0x70, 0x96, 0x61, 0x53, 0xa3, 0x54, 0xa5, 0x82, 0x5f, 0x8c,
  0x5b, 0x73, 0x85, 0x98, 0xbc, 0xa1, 0x93, 0xa7, 0x7b, 0x84, 0x8c, 0x5d,
  0xbf, 0xf2, 0x8b, 0x92, 0x96, 0x70, 0x87, 0x9d, 0xaa, 0x9f, 0x9f, 0xa4,
  0x61, 0x90, 0xca, 0xba, 0xca, 0x62, 0xa5, 0xac, 0x8a, 0x82, 0x8a, 0xb0,
  0x7b, 0x46, 0xa8, 0x9a, 0x80, 0x5b, 0xb1, 0x87, 0x7f, 0x44, 0xad, 0x84,
  0x9a, 0x90, 0x98, 0x7e, 0x9c, 0x4d, 0x89, 0x85, 0x78, 0x8c, 0x6e, 0xb0,
  0x99, 0x7e, 0x8a, 0x74, 0x72, 0x85, 0x7b, 0x72, 0x69, 0x65, 0x81, 0x7a,
  0x76, 0x94, 0xa0, 0x95, 0x8c, 0x85, 0x9c, 0x6f, 0x99, 0x91, 0xa5, 0x8d,
  0x86, 0xdf, 0x81, 0x5d, 0x9b, 0x6f, 0x56, 0x91, 0x89, 0xa4, 0x7d, 0x7e,
  0xba, 0x7d, 0x65, 0x6d, 0x5e, 0xa5, 0xa3, 0x67, 0x97, 0x94, 0x56, 0x72,
  0x75, 0x92, 0xa1, 0x8c, 0x9a, 0x79, 0x58, 0x9c, 0x89, 0x96, 0x79, 0x8e,
  0xa9, 0x86, 0x30, 0xb5, 0x7c, 0xa3, 0x8b, 0x66, 0x6f, 0x67, 0x58, 0x92,
  0x8c, 0x6b, 0x8e, 0x87, 0x89, 0x7a, 0x67, 0x6c, 0x8c, 0x81, 0x60, 0x8b,
  0xac, 0x43, 0x75, 0x5d, 0xa7, 0x5b, 0x7e, 0xad, 0x8f, 0x5d, 0xa8, 0x67,
  0x8e, 0x7d, 0x59, 0xbd, 0x70, 0x73, 0xb4, 0x94, 0xc8, 0xa1, 0x94, 0x94,
  0x6f, 0x78, 0x9f, 0xae, 0xb6, 0xd7, 0x83, 0x97, 0x8d, 0x98, 0x80, 0xae,
  0xa2, 0x80, 0x6d, 0xaa, 0x7d, 0x74, 0xbc, 0x98, 0x86, 0x6f, 0x80, 0xad,
  0xb5, 0x69, 0xc6, 0x8a, 0x6d, 0x46, 0xca, 0x73, 0xa4, 0x6b, 0xbc, 0xac,
  0x97, 0x50, 0x7d, 0x7c, 0xa1, 0x75, 0x83, 0x79, 0x75, 0x4c, 0x81, 0x6b,
  0x89, 0x81, 0x87, 0x85, 0x75, 0x6e, 0x74, 0x70, 0x74, 0x8a, 0x6a, 0x8b,
  0x7d, 0x58, 0x7b, 0x82, 0x6d, 0x98, 0x90, 0x9d, 0x70, 0xa3, 0x8b, 0x6a,
  0x8f, 0x73, 0x6a, 0x9a, 0x8a, 0xc0, 0x8c, 0xa6, 0x7c, 0x77, 0x7a, 0x9a,
  0x77, 0x8c, 0xae, 0x7b, 0x99, 0x7b, 0x6f, 0x85, 0x3e, 0x8d, 0x8a, 0x84,
  0x93, 0x87, 0x70, 0x85, 0x5c, 0xbb, 0xab, 0x85, 0x98, 0x7e, 0x72, 0xc1,
  0x67, 0x8f, 0x8c, 0x74, 0x81, 0x7d, 0x54, 0x8f, 0x80, 0x6c, 0x8e, 0x81,
  0x86, 0x64, 0x73, 0x88, 0x6b, 0x7b, 0x87, 0x61, 0x75, 0x7c, 0x8b, 0x67,
  0xa2, 0x76, 0x5b, 0x8d, 0x5f, 0x5a, 0x8c, 0x82, 0x9d, 0x8e, 0x5d, 0xc2,
  0x7c, 0xa3, 0x95, 0xbb, 0x6c, 0x87, 0x8d, 0xba, 0x69, 0x6d, 0x8e, 0x64,
  0x94, 0x85, 0x6c, 0xc0, 0x81, 0x78, 0xa4, 0x98, 0xcd, 0xc2, 0x81, 0xbc,
  0x6b, 0x7a, 0x86, 0x73, 0xa7, 0x79, 0x7d, 0xa7, 0x5d, 0x7f, 0xae, 0x76,
  0x91, 0x40, 0x92, 0x85, 0x85, 0x69, 0xd5, 0x9b, 0x2b, 0x34, 0xdb, 0xa5,
  0xc0, 0x5a, 0x88, 0x8b, 0x54, 0x5d, 0x91, 0x71, 0x9b, 0x81, 0x84, 0x97,
  0x81, 0x4d, 0x93, 0x76, 0x86, 0x79, 0x81, 0x9d, 0x6f, 0x75, 0x74, 0x7f,
  0x91, 0x94, 0x6e, 0xa7, 0x6a, 0x6d, 0x7d, 0x78, 0x81, 0x75, 0xa5, 0x76,
  0x6e, 0x9e, 0x77, 0x8e, 0x8e, 0x56, 0x9a, 0x6a, 0x53, 0x93, 0x8c, 0x79,
  0xa0, 0x80, 0x7b, 0x8f, 0x57, 0xaf, 0x97, 0x97, 0xa3, 0x7e, 0x98, 0x7a,
  0x32, 0x99, 0x8a, 0x7c, 0xab, 0x94, 0x5f, 0x97, 0x52, 0x7a, 0x92, 0x6d,
  0x90, 0x77, 0x65, 0xc7, 0x72, 0xa7, 0x93, 0x74, 0x96, 0x7c, 0x3e, 0x73,
  0x79, 0x88, 0x81, 0x83, 0x8d, 0x84, 0x70, 0x8f, 0x9d, 0x86, 0xa6, 0x7b,
  0x73, 0x7b, 0x54, 0x8a, 0xac, 0x4f, 0x87, 0xb0, 0x8a, 0x68, 0xb5, 0x84,
  0x8d, 0x59, 0x39, 0xa7, 0x7f, 0x93, 0xb7, 0x62, 0x7b, 0x72, 0x86, 0xcf,
  0x7d, 0x82, 0xa1, 0xac, 0x7e, 0x99, 0x66, 0xb3, 0x75, 0x7a, 0x89, 0x71,
  0xa4, 0xa5, 0x88, 0xb6, 0x48, 0x8d, 0xb7, 0x9a, 0xa2, 0xac, 0x84, 0xa5,
  0x73, 0x90, 0xbe, 0x8e, 0x5a, 0x55, 0x8c, 0x8e, 0x7f, 0x61, 0xba, 0xb9,
  0x2f, 0x4a, 0xa4, 0x77, 0xbb, 0x39, 0xa5, 0x8c, 0x52, 0x36, 0xa3, 0x7c,
  0xb0, 0x59, 0x89, 0x9d, 0x89, 0x6f, 0x7a, 0x8b, 0x8f, 0x9a, 0x67, 0x97,
  0x68, 0x95, 0x6d, 0x68, 0x54, 0x79, 0x88, 0x75, 0x68, 0x8f, 0x84, 0x74,
  0x7e, 0x91, 0x76, 0x82, 0x82, 0xb8, 0xad, 0x8f, 0x9c, 0x78, 0x72, 0xbc,
  0x80, 0x98, 0x95, 0x80, 0x96, 0x8f, 0x68, 0xae, 0x44, 0xad, 0x80, 0x82,
  0x8b, 0x83, 0x60, 0x97, 0x6b, 0xbd, 0xac, 0x72, 0xc2, 0x96, 0x84, 0x78,
  0x52, 0xa1, 0x80, 0x7f, 0xa5, 0x8d, 0x61, 0x56, 0x63, 0x8c, 0xa5, 0x6b,
  0x8c, 0x9c, 0x41, 0x5d, 0x67, 0x7a, 0x84, 0x72, 0x87, 0x85, 0x63, 0xaa,
  0x8c, 0x8e, 0x93, 0x81, 0x7d, 0x9e, 0x75, 0x64, 0x8b, 0x79, 0x92, 0xa7,
  0x65, 0x7c, 0x97, 0x68, 0xae, 0x8d, 0x84, 0xb5, 0x8c, 0x94, 0xac, 0x7e,
  0x6d, 0x8c, 0x88, 0xb9, 0x85, 0x79, 0xce, 0x96, 0x7e, 0x72, 0x84, 0x98,
  0x78, 0x9e, 0xa4, 0x99, 0xa8, 0xce, 0x88, 0xc0, 0x53, 0x84, 0x9b, 0x9f,
  0xc9, 0x5f, 0x73, 0xbd, 0x82, 0x5d, 0xd4, 0x95, 0x8c, 0x45, 0xb4, 0xa0,
  0x9a, 0x66, 0xd1, 0x95, 0x43, 0x1d, 0xb7, 0x88, 0xc5, 0x65, 0x93, 0xb1,
  0x23, 0x35, 0x88, 0x92, 0xc4, 0x70, 0x82, 0x73, 0x49, 0x5f, 0x85, 0x6b,
  0x8c, 0x97, 0x89, 0x5c, 0x53, 0x87, 0x64, 0x64, 0x78, 0x9b, 0x68, 0x88,
  0x9d, 0x74, 0x7e, 0x75, 0x7e, 0x70, 0x7d, 0x83, 0x6d, 0x9e, 0x80, 0x71,
  0x80, 0x87, 0x81, 0x75, 0x5b, 0x99, 0x6b, 0x7a, 0x92, 0x8e, 0x8b, 0x84,
  0x2a, 0x92, 0x9f, 0x6c, 0x94, 0x51, 0x9d, 0x9b, 0x4d, 0xb2, 0x90, 0x95,
  0xbd, 0x68, 0x59, 0x7b, 0x4f, 0xa2, 0x8d, 0x83, 0x9d, 0x71, 0x57, 0x8d,
  0x42, 0x80, 0x96, 0x6f, 0xa8, 0x88, 0x61, 0x98, 0x56, 0x80, 0x72, 0x70,
  0xa6, 0x87, 0x6d, 0x71, 0x6d, 0x79, 0x90, 0x84, 0x7b, 0x7d, 0x58, 0x82,
  0x75, 0xa6, 0x9d, 0xa8, 0x9f, 0x75, 0x94, 0x76, 0x8c, 0xa2, 0x67, 0xc7,
  0x5a, 0x98, 0xc7, 0x5d, 0x79, 0x8c, 0x91, 0xd6, 0x86, 0xa0, 0xc2, 0x94,
  0x82, 0x9d, 0x88, 0x94, 0x5b, 0x80, 0x9e, 0x9e, 0xa3, 0xb9, 0x7a, 0x9c,
  0x78, 0x9e, 0x9f, 0xb9, 0xb3, 0x8b, 0x56, 0x9e, 0x7a, 0x84, 0xc5, 0x9f,
  0x5d, 0x4d, 0xbc, 0x9c, 0x90, 0x6f, 0xca, 0xae, 0x41, 0x30, 0xc2, 0x72,
  0xcb, 0x5f, 0xb5, 0x7a, 0x45, 0x4c, 0xac, 0x82, 0xa7, 0x5b, 0x9a, 0x8e,
  0x76, 0x65, 0x6f, 0x69, 0x93, 0x86, 0x8b, 0x9b, 0x47, 0x73, 0x7c, 0x7e,
  0x5a, 0x85, 0x75, 0x71, 0x55, 0x9a, 0x88, 0x72, 0x55, 0x67, 0x7d, 0x9d,
  0x6e, 0x9b, 0x71, 0x7b, 0x96, 0x95, 0xa2, 0x98, 0x5c, 0x85, 0x86, 0x83,
  0x8a, 0x7a, 0x99, 0x66, 0x46, 0xb9, 0xa3, 0x7c, 0xad, 0x65, 0x7c, 0xa9,
  0x19, 0xb1, 0xae, 0x77, 0xa9, 0x7e, 0x94, 0x8d, 0x77, 0x97, 0x91, 0x82,
  0x86, 0x67, 0x67, 0x84, 0x5d, 0x89, 0xa3, 0xa9, 0x78, 0x8d, 0x7b, 0x6b,
  0x4d, 0x8b, 0x7b, 0x87, 0x83, 0x83, 0x53, 0x82, 0x9a, 0x79, 0x8c, 0x72,
  0x7c, 0x9b, 0x6a, 0x5a, 0x84, 0x81, 0xab, 0x92, 0x67, 0x82, 0x8f, 0x81,
  0xc6, 0x6f, 0x39, 0x98, 0x76, 0x7d, 0xcc, 0x7b, 0x60, 0x8e, 0x9a, 0xc9,
  0x65, 0x8f, 0xd8, 0xad, 0x92, 0x8d, 0x71, 0xa5, 0x66, 0x95, 0x9e, 0xab,
  0xc1, 0x78, 0x70, 0xa7, 0x7e, 0x8b, 0xbe, 0x8f, 0xd3, 0x70, 0x5b, 0xcf,
  0x75, 0x68, 0xae, 0x85, 0x59, 0x4d, 0xa3, 0x87, 0xa6, 0x6e, 0xbf, 0x9f,
  0x37, 0x28, 0xb1, 0x9d, 0xb6, 0x5e, 0x93, 0x8a, 0x63, 0x3c, 0x77, 0x66,
  0xb1, 0x92, 0x7a, 0x8c, 0x65, 0x66, 0x75, 0x8f, 0x91, 0xa8, 0x7a, 0x7f,
  0x4c, 0x8f, 0x71, 0x78, 0x87, 0xb7, 0x76, 0xa8, 0x60, 0x8e, 0xa1, 0x88,
  0x71, 0x73, 0x88, 0x86, 0x50, 0xa8, 0x96, 0x57, 0xa4, 0x98, 0x91, 0xa0,
  0x43, 0x98, 0x86, 0x6a, 0x59, 0x69, 0x8b, 0x86, 0x21, 0x86, 0x95, 0x7e,
  0xaf, 0x7b, 0x58, 0x72, 0x23, 0x9b, 0x98, 0x78, 0xa4, 0x98, 0x80, 0x8b,
  0x5c, 0xb9, 0x87, 0x77, 0xac, 0x82, 0x74, 0x82, 0x4d, 0x95, 0x94, 0x8f,
  0xad, 0xa2, 0x66, 0x9b, 0x70, 0x99, 0x77, 0x82, 0x6e, 0x81, 0x79, 0x82,
  0x85, 0x87, 0x84, 0x8b, 0x7c, 0x80, 0x80, 0x81, 0x96, 0xb0, 0x75, 0xa1,
  0x7c, 0x75, 0x93, 0x86, 0xc6, 0x88, 0x43, 0xba, 0x5d, 0x82, 0xc6, 0x7e,
  0x7e, 0x84, 0xb5, 0xcb, 0x72, 0xa5, 0xc0, 0xa2, 0x7f, 0x94, 0x78, 0x92,
  0x50, 0x9b, 0xb7, 0xab, 0xcf, 0x80, 0x91, 0xad, 0x6c, 0x8d, 0x95, 0x7b,
  0xd2, 0x64, 0x8a, 0xc2, 0x7e, 0xa4, 0xce, 0x92, 0x67, 0x46, 0xb4, 0x8e,
  0x86, 0x5d, 0xa7, 0xa6, 0x36, 0x20, 0x84, 0x72, 0xb0, 0x4e, 0x9f, 0x98,
  0x5c, 0x6d, 0x90, 0x6d, 0xae, 0x83, 0xa0, 0x8a, 0x3d, 0x66, 0x50, 0x6f,
  0x89, 0xa2, 0x90, 0x8e, 0x68, 0x81, 0x57, 0x6b, 0x8f, 0x94, 0x90, 0x8f,
  0x74, 0x9f, 0x8e, 0x71, 0x76, 0x9c, 0x97, 0x84, 0x72, 0x85, 0x9f, 0x80,
  0xa3, 0x97, 0x5d, 0x8f, 0x57, 0x85, 0x8c, 0x90, 0x8d, 0x78, 0x81, 0xad,
  0x2d, 0x91, 0xa3, 0x66, 0x8d, 0x5f, 0x82, 0x7a, 0x37, 0xa1, 0xa7, 0x57,
  0x9b, 0x94, 0x6e, 0x80, 0x62, 0x9c, 0x82, 0x78, 0xa7, 0x7d, 0x6f, 0x87,
  0x5b, 0x9f, 0x99, 0x81, 0xaa, 0x91, 0x81, 0x74, 0x6d, 0xa1, 0xa6, 0x98,
  0x78, 0x98, 0x75, 0x8e, 0xa8, 0x83, 0xa1, 0x9e, 0x89, 0x8f, 0x6b, 0x9b,
  0x81, 0x71, 0xa5, 0xbc, 0x62, 0x88, 0xa4, 0x81, 0x9f, 0x8c, 0x5b, 0x91,
  0x6d, 0x78, 0xbb, 0xa2, 0x98, 0xa2, 0x90, 0xb1, 0x73, 0xcb, 0xb3, 0xa0,
  0x9e, 0x8e, 0x79, 0xa7, 0x4d, 0x9a, 0x97, 0xae, 0xab, 0xaa, 0x71, 0xb0,
  0x4a, 0x94, 0xbc, 0x98, 0xb2, 0x87, 0x7f, 0xa3, 0x63, 0x9f, 0xbe, 0x94,
  0x69, 0x6c, 0xaa, 0xb4, 0x9e, 0x4e, 0xb7, 0x5b, 0x64, 0x45, 0x99, 0xab,
  0x98, 0x64, 0xca, 0x5f, 0x4e, 0x37, 0xc1, 0x7d, 0xba, 0x85, 0x98, 0x88,
  0x4a, 0x83, 0x6a, 0x6e, 0x97, 0x9e, 0x79, 0x74, 0x5e, 0xa6, 0x60, 0x6a,
  0x8d, 0xa0, 0x97, 0x94, 0x5c, 0x92, 0x9b, 0x67, 0x6a, 0x93, 0xa0, 0x7c,
  0x4b, 0x95, 0x79, 0x84, 0x6d, 0x76, 0x90, 0x98, 0x47, 0x8f, 0x7f, 0x5e,
  0x7f, 0x74, 0x60, 0x83, 0x2d, 0x9d, 0xaf, 0x6b, 0xb1, 0x7e, 0x7a, 0x94,
  0x47, 0x99, 0x8f, 0x5d, 0xc2, 0x8e, 0x5a, 0x7e, 0x5e, 0x93, 0x99, 0x87,
  0x92, 0x8a, 0x5a, 0x92, 0x5c, 0x81, 0xa7, 0x8b, 0xb3, 0x80, 0x57, 0x8a,
  0x67, 0x7a, 0x81, 0x88, 0x6d, 0x92, 0x8e, 0x88, 0x7a, 0x8d, 0x76, 0x91,
  0x78, 0x7f, 0x84, 0x73, 0xae, 0x69, 0x92, 0xb4, 0x86, 0x7d, 0xb2, 0x61,
  0xad, 0x76, 0x7e, 0xbf, 0x65, 0x70, 0xd0, 0xa4, 0x7b, 0x87, 0x99, 0xac,
  0x66, 0x93, 0x9d, 0x9e, 0x9b, 0x84, 0x53, 0xae, 0x51, 0x90, 0xa1, 0x7a,
  0xc2, 0x76, 0x7f, 0x9e, 0x50, 0x77, 0xb8, 0xab, 0xaa, 0x59, 0x8f, 0xb0,
  0x67, 0x95, 0xbf, 0x90, 0x74, 0x47, 0x85, 0xc9, 0xb5, 0x57, 0xc0, 0x77,
  0x6f, 0x26, 0x9a, 0x8e, 0xb3, 0x6c, 0xb4, 0x8e, 0x56, 0x2e, 0xc5, 0x7e,
  0xcb, 0x8b, 0xaa, 0x9b, 0x47, 0x8b, 0x77, 0x61, 0x8a, 0x96, 0xb7, 0x77,
  0x58, 0x92, 0x53, 0x71, 0x3f, 0x99, 0x84, 0x7f, 0x48, 0x97, 0x6c, 0x87,
  0x4b, 0x7f, 0x6b, 0x90, 0x55, 0xaa, 0x93, 0x84, 0x62, 0x98, 0x5a, 0x9a,
  0x4c, 0x9f, 0x6e, 0x8c, 0x82, 0x88, 0x9e, 0x68, 0x44, 0xa0, 0xa4, 0x87,
  0x94, 0x77, 0x4c, 0x90, 0x55, 0xb5, 0x9d, 0x60, 0x9a, 0x80, 0x53, 0x9f,
  0x56, 0x9e, 0xb2, 0x78, 0x7a, 0x8f, 0x65, 0x82, 0x62, 0x97, 0x9f, 0xa9,
  0x87, 0xb5, 0x77, 0x82, 0x6b, 0x8e, 0x8e, 0x8f, 0x77, 0x80, 0x6e, 0x75,
  0x83, 0x6b, 0x88, 0x85, 0x7e, 0xa6, 0x78, 0x5d, 0xaa, 0x6a, 0x7a, 0xbd,
  0x7f, 0x78, 0xb1, 0xac, 0x9c, 0x8b, 0x52, 0xdb, 0x76, 0x9e, 0x92, 0x7f,
  0x6d, 0x79, 0x97, 0xa8, 0x61, 0x9e, 0xb2, 0xaf, 0xa6, 0xa4, 0x72, 0x90,
  0x4e, 0x9c, 0x85, 0xb5, 0xa2, 0x8c, 0x72, 0x95, 0x48, 0x8b, 0x7f, 0x9a,
  0xa0, 0x71, 0x8e, 0x8e, 0x66, 0x7b, 0xb6, 0x9b, 0x85, 0x4f, 0xb7, 0xb8,
  0x8e, 0x74, 0xb5, 0x72, 0x43, 0x1b, 0x9f, 0x9d, 0xb1, 0x59, 0xac, 0x60,
  0x76, 0x4c, 0xb0, 0x6e, 0xd1, 0x77, 0x66, 0x54, 0x5b, 0x82, 0x7b, 0x78,
  0x81, 0x99, 0x84, 0x7a, 0x7b, 0x76, 0x6e, 0x8a, 0x88, 0xb0, 0xa3, 0x9b,
  0x4b, 0x72, 0x7d, 0x7a, 0x4f, 0xa6, 0x65, 0xbf, 0x62, 0x9b, 0x50, 0x86,
  0x81, 0x80, 0x92, 0x76, 0x3b, 0x7c, 0x66, 0x8f, 0x71, 0x7b, 0x80, 0x6e,
  0x3d, 0x8d, 0xa8, 0x48, 0x97, 0x8b, 0x8b, 0x90, 0x50, 0xac, 0x7c, 0x6b,
  0xa7, 0x71, 0x78, 0xaf, 0x54, 0x97, 0x7b, 0x6f, 0x83, 0x81, 0x42, 0x56,
  0x5c, 0xaa, 0xa6, 0x7e, 0x9a, 0x89, 0x6d, 0x70, 0xa2, 0x7d, 0x9a, 0xa5,
  0x76, 0xa0, 0x9b, 0x96, 0x4a, 0x65, 0x73, 0x9f, 0x72, 0x7f, 0x7b, 0x8d,
  0x7a, 0x8a, 0xac, 0xb1, 0x67, 0x6c, 0xa3, 0x77, 0xcb, 0x76, 0x57, 0xa5,
  0x74, 0x84, 0xc5, 0xa8, 0x7f, 0xb1, 0x87, 0xc1, 0x6f, 0xcf, 0xa2, 0xaa,
  0x74, 0x67, 0x62, 0xd2, 0x34, 0x88, 0xb6, 0x9e, 0xab, 0x66, 0x4b, 0xbc,
  0x41, 0x69, 0x99, 0xa1, 0x9f, 0x6f, 0x95, 0xbc, 0x79, 0x7f, 0xa6, 0x88,
  0x92, 0x7e, 0x9e, 0x98, 0x88, 0x4e, 0xbb, 0x69, 0x6d, 0x34, 0xba, 0xa4,
  0xd3, 0x4a, 0xac, 0x78, 0x7d, 0x5a, 0xbc, 0x77, 0xb6, 0x5f, 0x7a, 0x82,
  0x79, 0x9b, 0x8d, 0x4e, 0x81, 0x9b, 0x74, 0x73, 0x6f, 0x88, 0x60, 0x7c,
  0x57, 0xb0, 0x8a, 0xa4, 0x71, 0x67, 0x82, 0x75, 0x7c, 0x85, 0x8f, 0x7f,
  0x64, 0x78, 0x75, 0x6c, 0x7c, 0x8b, 0x83, 0x7f, 0x5d, 0xb9, 0x76, 0x54,
  0x7d, 0x72, 0x8d, 0x61, 0x25, 0xc6, 0x90, 0x9a, 0x9d, 0x71, 0x66, 0x83,
  0x3c, 0x91, 0xac, 0x7b, 0xae, 0x88, 0x6e, 0x8e, 0x45, 0xc1, 0x8f, 0x72,
  0x85, 0x90, 0x6e, 0x64, 0x66, 0x7c, 0x98, 0x9e, 0x97, 0x88, 0xa0, 0x78,
  0x7c, 0x6e, 0xa6, 0x85, 0x5f, 0x83, 0x9b, 0x95, 0xb7, 0x81, 0x6a, 0x93,
  0x5f, 0x6a, 0x8e, 0x63, 0x70, 0x78, 0x85, 0xbb, 0xa5, 0x89, 0xb8, 0xb8,
  0xc9, 0x52, 0x8d, 0xc3, 0x79, 0x90, 0xb8, 0x7f, 0x85, 0x82, 0x7e, 0xcb,
  0x70, 0xd4, 0x97, 0xc4, 0xc2, 0x96, 0x56, 0xd2, 0x3d, 0x9e, 0xad, 0xbf,
  0xaa, 0x86, 0x7e, 0xa8, 0x6d, 0x79, 0x8b, 0x74, 0xcd, 0x81, 0x7a, 0xa6,
  0x5b, 0x5a, 0x93, 0x6d, 0x86, 0x2e, 0xbd, 0xbf, 0x92, 0x5a, 0x91, 0x91,
  0x7f, 0x1e, 0xb1, 0x8c, 0xcd, 0x55, 0xc8, 0x7b, 0x64, 0x49, 0xe7, 0x73,
  0xc0, 0x98, 0xa8, 0x7e, 0x90, 0x99, 0x6c, 0x52, 0xad, 0x88, 0x6b, 0x79,
  0x71, 0x74, 0x85, 0x98, 0x57, 0xb4, 0x9a, 0xb2, 0x5a, 0xa2, 0x4b, 0x8b,
  0x44, 0x73, 0x86, 0x86, 0x4c, 0x6f, 0x88, 0x5d, 0x66, 0x87, 0x76, 0x72,
  0x37, 0x8d, 0x95, 0x61, 0x6a, 0x98, 0x67, 0xa5, 0x42, 0xd0, 0x8e, 0x82,
  0x8c, 0x7f, 0x68, 0x69, 0x33, 0xa9, 0xa4, 0x5e, 0xc7, 0x65, 0x68, 0x84,
  0x4c, 0x9c, 0xa4, 0x92, 0x7b, 0x9d, 0x66, 0x89, 0x88, 0x84, 0xb4, 0xb6,
  0x89, 0x7f, 0x90, 0xa2, 0x6d, 0x87, 0xa9, 0x7a, 0xa3, 0x8b, 0x87, 0x77,
  0x71, 0x64, 0x65, 0x9f, 0x63, 0x98, 0x76, 0x70, 0x96, 0x55, 0x7f, 0xde,
  0x73, 0x65, 0xbd, 0xa1, 0xa4, 0x85, 0x8f, 0xdb, 0x7b, 0x88, 0xd4, 0xa8,
  0x98, 0x92, 0x7b, 0x9e, 0x64, 0xbb, 0xa6, 0xa9, 0xb1, 0x84, 0x44, 0x9c,
  0x3d, 0x80, 0xc1, 0x99, 0xb2, 0x80, 0x5f, 0xc0, 0x71, 0x44, 0x89, 0xa9,
  0xb6, 0x5b, 0x6d, 0xb5, 0x50, 0x90, 0x90, 0xa7, 0x91, 0x63, 0xab, 0xc9,
  0x9d, 0x51, 0x97, 0x8b, 0x7a, 0x16, 0xbf, 0x92, 0x95, 0x33, 0xb3, 0x57,
  0x60, 0x44, 0xb7, 0x82, 0xbd, 0x6b, 0x79, 0x76, 0x8c, 0x4b, 0x71, 0x4e,
  0xb7, 0x7e, 0x7b, 0x91, 0x74, 0x80, 0x77, 0x9a, 0x58, 0xaa, 0x99, 0x83,
  0x42, 0x8b, 0x64, 0x80, 0x7f, 0x9e, 0x8d, 0xc0, 0x38, 0x89, 0x71, 0x96,
  0x9a, 0xa4, 0x67, 0x89, 0x41, 0xa2, 0x80, 0x74, 0x88, 0x82, 0x67, 0x6e,
  0x53, 0xc1, 0x7e, 0x8b, 0x93, 0x81, 0x8f, 0x66, 0x39, 0x9a, 0x8f, 0x51,
  0x85, 0x91, 0x5c, 0x7b, 0x72, 0x91, 0xa2, 0x7a, 0x9f, 0xa1, 0x7b, 0x65,
  0x82, 0x91, 0x9e, 0xd6, 0xab, 0x8f, 0xb7, 0x62, 0xb4, 0xb1, 0x92, 0xad,
  0x7b, 0x81, 0x96, 0x7a, 0x66, 0x7b, 0x79, 0xa2, 0x7d, 0x6d, 0x81, 0x92,
  0x75, 0xa1, 0xb3, 0xaf, 0xa7, 0x87, 0xbc, 0x79, 0xb0, 0x52, 0x56, 0xc0,
  0x75, 0x98, 0xa2, 0x8f, 0x83, 0xa9, 0x98, 0xa5, 0x56, 0xc1, 0x85, 0xd5,
  0xab, 0x77, 0x70, 0xd3, 0x5f, 0x7a, 0x9e, 0x73, 0xc6, 0x6d, 0x8f, 0xc3,
  0x66, 0x6a, 0x80, 0x8e, 0xaa, 0x7d, 0x8d, 0xc4, 0x74, 0x73, 0xa7, 0x91,
  0x7d, 0x6c, 0x82, 0xa7, 0x8a, 0x20, 0x8a, 0x81, 0x61, 0x50, 0xbc, 0xaa,
  0xa0, 0x49, 0xaa, 0x96, 0x67, 0x63, 0xec, 0x6a, 0x9a, 0x74, 0x9e, 0x75,
  0x7d, 0x8f, 0x8c, 0x62, 0x86, 0x82, 0x61, 0x79, 0x85, 0x6e, 0x67, 0x7e,
  0x66, 0xaa, 0xa7, 0x94, 0x63, 0x80, 0x77, 0x84, 0x7f, 0x94, 0x96, 0x8d,
  0x58, 0x7f, 0x89, 0x60, 0x88, 0x75, 0x81, 0x70, 0x55, 0x88, 0x87, 0x7e,
  0x8f, 0x95, 0x8e, 0x6c, 0x24, 0xbc, 0x83, 0x93, 0x87, 0x77, 0xa9, 0x8a,
  0x2c, 0xa5, 0xa4, 0x92, 0xb2, 0x7d, 0x7b, 0x66, 0x4d, 0x9e, 0x9e, 0xbd,
  0xa7, 0x79, 0x78, 0x86, 0x73, 0x8d, 0xc0, 0xd5, 0x93, 0x94, 0x82, 0x59,
  0x87, 0x82, 0x9f, 0x8a, 0x9c, 0x8f, 0x5c, 0x6d, 0x66, 0x6f, 0x82, 0x9a,
  0x75, 0x80, 0x8f, 0x8c, 0x63, 0x80, 0x9f, 0xb2, 0x6d, 0x95, 0xca, 0x97,
  0xa7, 0x64, 0xc3, 0xb6, 0x81, 0x98, 0xc4, 0x8f, 0x6f, 0x69, 0xa9, 0xb5,
  0x8a, 0xd2, 0xac, 0x9d, 0xc7, 0x87, 0x75, 0xd3, 0x3e, 0x67, 0xa9, 0xc4,
  0xb5, 0x8b, 0x67, 0x9e, 0x4c, 0x58, 0x88, 0x97, 0xb0, 0x38, 0x7e, 0xb3,
  0x6c, 0x74, 0x91, 0x61, 0x93, 0x42, 0xae, 0xa8, 0xa2, 0x48, 0x82, 0x7d,
  0x66, 0x63, 0xb7, 0xa3, 0xac, 0x43, 0xba, 0x57, 0x5a, 0x3e, 0xc7, 0x6f,
  0xb8, 0x71, 0xa1, 0x93, 0x50, 0x65, 0x9b, 0x76, 0xc5, 0x92, 0x7f, 0x62,
  0x4b, 0x4b, 0x6c, 0x7f, 0x78, 0xb0, 0x82, 0x6a, 0x42, 0x7f, 0x70, 0x6f,
  0x71, 0x91, 0x93, 0x69, 0x49, 0x8d, 0xaa, 0x73, 0x72, 0x85, 0x5c, 0x85,
  0x48, 0xae, 0x91, 0x8b, 0x94, 0x8e, 0x5a, 0x92, 0x4c, 0x8c, 0xb6, 0x93,
  0xb3, 0x84, 0x80, 0x86, 0x55, 0xba, 0xac, 0x89, 0xaa, 0x94, 0x93, 0x5e,
  0x81, 0x65, 0xcc, 0x87, 0x92, 0x85, 0xbd, 0x8a, 0x7d, 0x97, 0xb6, 0xb9,
  0xae, 0x6f, 0xa2, 0x76, 0xad, 0x81, 0x94, 0xa9, 0x69, 0x5d, 0x8d, 0x49,
  0x5b, 0x6c, 0x87, 0xaf, 0x68, 0x98, 0x72, 0x5f, 0x89, 0x94, 0xaa, 0xc6,
  0x8a, 0x9d, 0xc5, 0x65, 0xb1, 0x46, 0x9d, 0xca, 0x7c, 0x7c, 0xc9, 0x8a,
  0x9e, 0x86, 0xb0, 0xd0, 0x79, 0xbc, 0xa7, 0x9f, 0xaf, 0x86, 0x6c, 0xcc,
  0x69, 0x90, 0xcf, 0xa2, 0xd8, 0x49, 0x5b, 0x9c, 0x64, 0x71, 0x9c, 0x76,
  0xae, 0x6d, 0x7f, 0xa4, 0x30, 0x6f, 0x95, 0xb5, 0x8f, 0x55, 0x9a, 0x99,
  0xa4, 0x36, 0xb4, 0x96, 0x80, 0x29, 0xc6, 0x9d, 0xb2, 0x42, 0xbd, 0x61,
  0x76, 0x54, 0xb3, 0x55, 0xc6, 0x40, 0x9c, 0x82, 0x4f, 0x4b, 0x84, 0x69,
  0x8f, 0x83, 0x85, 0x74, 0x31, 0x6f, 0x9d, 0x89, 0x74, 0x8e, 0x83, 0x8f,
  0x47, 0x70, 0xa2, 0x64, 0x7f, 0x94, 0x7f, 0xac, 0x75, 0xac, 0x75, 0x73,
  0xa7, 0x9b, 0x9a, 0x9f, 0x58, 0xb9, 0xa9, 0x74, 0x7c, 0xae, 0x7e, 0x91,
  0x52, 0xac, 0xa4, 0xb7, 0x78, 0x96, 0x7c, 0x98, 0x3e, 0xb3, 0xca, 0x71,
  0xa3, 0x8f, 0x8f, 0x77, 0x5c, 0x72, 0xc1, 0x7c, 0x8e, 0x83, 0xa0, 0x6b,
  0x86, 0x4d, 0x9d, 0x93, 0xa4, 0x80, 0x88, 0x70, 0x80, 0x68, 0xa0, 0x9c,
  0x85, 0x7d, 0x78, 0x86, 0x80, 0x81, 0x77, 0x91, 0x59, 0x79, 0x5a, 0x7a,
  0x76, 0x72, 0x7f, 0xa1, 0x6e, 0x82, 0xb0, 0xb4, 0x9f, 0x7f, 0x96, 0xbf,
  0x98, 0x88, 0xb4, 0x90, 0x91, 0x6a, 0x88, 0xc7, 0x89, 0xb5, 0xa0, 0xbd,
  0xac, 0x7c, 0x85, 0xaa, 0x5f, 0x8f, 0xa0, 0x95, 0xbf, 0x62, 0x89, 0xf8,
  0x6b, 0x80, 0xbd, 0x98, 0xc6, 0x88, 0x78, 0xaf, 0x79, 0x53, 0xa2, 0xa8,
  0x9a, 0x66, 0xb3, 0xb7, 0xb1, 0x3e, 0x76, 0x64, 0x84, 0x5c, 0xb0, 0xa9,
  0xb0, 0x50, 0x9a, 0x64, 0xa3, 0x4f, 0xcc, 0x8e, 0xad, 0x6f, 0x74, 0x64,
  0x58, 0x7a, 0x99, 0x6f, 0xc0, 0x85, 0x9b, 0x70, 0x64, 0x5d, 0x94, 0x74,
  0x68, 0x85, 0x7b, 0x81, 0x4f, 0x76, 0x6d, 0x81, 0x77, 0x82, 0x81, 0x62,
  0x8b, 0x8c, 0x8d, 0x61, 0x78, 0x74, 0x81, 0x79, 0x40, 0x6f, 0x8e, 0x8e,
  0x6c, 0x9c, 0x84, 0x86, 0x48, 0xbe, 0xa0, 0x7f, 0x85, 0x6d, 0x87, 0x7f,
  0x79, 0xb0, 0xc1, 0xad, 0xc4, 0x70, 0x95, 0x96, 0x6b, 0x63, 0xa7, 0x93,
  0x8a, 0x8a, 0x8a, 0x6f, 0x74, 0x50, 0xbd, 0x7b, 0x76, 0x8a, 0x8f, 0x68,
  0x71, 0x80, 0x8e, 0x97, 0x7d, 0x6e, 0x8c, 0x75, 0x87, 0x54, 0x75, 0x97,
  0x72, 0x76, 0x71, 0x75, 0x71, 0x63, 0xa8, 0x87, 0x79, 0x81, 0x95, 0x82,
  0x59, 0x84, 0x90, 0xac, 0xa5, 0xa1, 0xa8, 0x93, 0x5c, 0x70, 0x8d, 0xb3,
  0x8c, 0xb5, 0xa9, 0x93, 0x78, 0xa5, 0xba, 0xa0, 0x84, 0xac, 0x8e, 0x93,
  0x91, 0x58, 0xa3, 0xcc, 0x7e, 0x7c, 0x98, 0xb8, 0x76, 0x4f, 0x99, 0xa6,
  0x70, 0x77, 0xb6, 0x6d, 0x5e, 0x72, 0x93, 0x6d, 0x74, 0x42, 0x90, 0x9e,
  0xb0, 0x70, 0xa9, 0xa3, 0xb5, 0x19, 0x99, 0x6f, 0x98, 0x87, 0xd8, 0x8e,
  0xc8, 0x7d, 0x95, 0x88, 0x7d, 0x71, 0xc2, 0xa4, 0x87, 0x9d, 0x6f, 0xac,
  0x6d, 0x60, 0x8d, 0x76, 0x85, 0xab, 0x92, 0x86, 0x5b, 0x9c, 0xa5, 0x8b,
  0x8c, 0x91, 0x92, 0x9c, 0x79, 0xa0, 0x8f, 0x89, 0x80, 0x8c, 0x8b, 0x65,
  0x7e, 0x96, 0x70, 0x7d, 0xa8, 0x85, 0x83, 0x96, 0x66, 0xcf, 0xbf, 0x7d,
  0xaf, 0x8c, 0x8f, 0x83, 0x89, 0x89, 0x9d, 0x7d, 0x94, 0x7c, 0xa4, 0x94,
  0x7b, 0x71, 0xab, 0xb7, 0xa0, 0x8d, 0xa4, 0x7b, 0x67, 0x42, 0x9d, 0x92,
  0x9d, 0x58, 0xa8, 0x79, 0x75, 0x9f, 0x87, 0x75, 0x85, 0x86, 0x67, 0x8b,
  0x64, 0x5e, 0x5f, 0x9c, 0x66, 0x71, 0x5b, 0x66, 0x69, 0x67, 0xb9, 0xaa,
  0x8c, 0x96, 0xa8, 0x52, 0x55, 0x81, 0x6f, 0xb1, 0x62, 0x9b, 0xb0, 0x95,
  0x68, 0x91, 0x91, 0xb1, 0x7f, 0xad, 0xa0, 0x80, 0x7c, 0x5e, 0xa1, 0x90,
  0xc2, 0xa3, 0x8a, 0x7f, 0x8d, 0x52, 0x8d, 0xbf, 0x83, 0x81, 0x9f, 0x4b,
  0x77, 0x4d, 0xa5, 0x94, 0x6d, 0x6a, 0xad, 0x81, 0x73, 0x6e, 0xb3, 0xa9,
  0x8b, 0x4d, 0x88, 0xa6, 0x6d, 0x63, 0xa7, 0xae, 0x95, 0x48, 0xa7, 0x91,
  0x97, 0x5d, 0xa2, 0xbd, 0xac, 0x84, 0x8b, 0x79, 0x95, 0x75, 0xbd, 0x7d,
  0x97, 0xa9, 0x81, 0x8c, 0x7d, 0x94, 0x9d, 0x94, 0x9a, 0xb9, 0x66, 0x4e,
  0x7e, 0x6c, 0x70, 0x91, 0x9f, 0xbe, 0x85, 0x91, 0xa0, 0x88, 0xb3, 0x86,
  0x86, 0xb6, 0x88, 0x70, 0x63, 0x8f, 0x9b, 0x89, 0x9d, 0x84, 0x8f, 0x65,
  0x4a, 0x76, 0xab, 0x72, 0xba, 0x78, 0x6a, 0x8d, 0x6a, 0x6f, 0xc5, 0x7d,
  0x7e, 0x62, 0x95, 0x8a, 0x77, 0x63, 0x96, 0x7f, 0x72, 0x47, 0x9c, 0x73,
  0x7e, 0xb3, 0x8c, 0x81, 0x97, 0x5c, 0x7d, 0x86, 0x64, 0xb2, 0x6d, 0x54,
  0x6f, 0x5d, 0x69, 0x43, 0x81, 0x64, 0x57, 0x52, 0x4e, 0x58, 0x58, 0x7c,
  0xaa, 0xfa, 0xff, 0xff, 0x00, 0x00, 0x00, 0x03, 0x10, 0x00, 0x00, 0x00,
  0x07, 0x00, 0x00, 0x00, 0x1c, 0x00, 0x00, 0x00, 0x24, 0x00, 0x00, 0x00,
  0x04, 0x00, 0x00, 0x00, 0x01, 0x00, 0x00, 0x00, 0x19, 0x00, 0x00, 0x00,
  0x14, 0x00, 0x00, 0x00, 0x08, 0x00, 0x00, 0x00, 0x04, 0x00, 0x00, 0x00,
  0x52, 0x65, 0x6c, 0x75, 0x00, 0x00, 0x00, 0x00, 0x9c, 0xfb, 0xff, 0xff,
  0x2c, 0x00, 0x00, 0x00, 0x20, 0x00, 0x00, 0x00, 0x14, 0x00, 0x00, 0x00,
  0x04, 0x00, 0x00, 0x00, 0x01, 0x00, 0x00, 0x00, 0x00, 0x00, 0x00, 0x00,
  0x00, 0x00, 0x00, 0x00, 0x01, 0x00, 0x00, 0x00, 0x16, 0x7f, 0xa9, 0x3d,
  0x01, 0x00, 0x00, 0x00, 0x97, 0xd5, 0xa8, 0x41, 0x01, 0x00, 0x00, 0x00,
  0x00, 0x00, 0x00, 0x00, 0x1a, 0xfb, 0xff, 0xff, 0x00, 0x00, 0x00, 0x03,
  0x10, 0x00, 0x00, 0x00, 0x06, 0x00, 0x00, 0x00, 0x1c, 0x00, 0x00, 0x00,
  0x44, 0x00, 0x00, 0x00, 0x04, 0x00, 0x00, 0x00, 0x01, 0x00, 0x00, 0x00,
  0x0a, 0x00, 0x00, 0x00, 0x08, 0x00, 0x00, 0x00, 0x08, 0x00, 0x00, 0x00,
  0x25, 0x00, 0x00, 0x00, 0x77, 0x65, 0x69, 0x67, 0x68, 0x74, 0x73, 0x5f,
  0x71, 0x75, 0x61, 0x6e, 0x74, 0x2f, 0x46, 0x61, 0x6b, 0x65, 0x51, 0x75,
  0x61, 0x6e, 0x74, 0x57, 0x69, 0x74, 0x68, 0x4d, 0x69, 0x6e, 0x4d, 0x61,
  0x78, 0x56, 0x61, 0x72, 0x73, 0x00, 0x00, 0x00, 0x2c, 0xfc, 0xff, 0xff,
  0x2c, 0x00, 0x00, 0x00, 0x20, 0x00, 0x00, 0x00, 0x14, 0x00, 0x00, 0x00,
  0x04, 0x00, 0x00, 0x00, 0x01, 0x00, 0x00, 0x00, 0x83, 0x00, 0x00, 0x00,
  0x00, 0x00, 0x00, 0x00, 0x01, 0x00, 0x00, 0x00, 0x17, 0x28, 0x84, 0x3a,
  0x01, 0x00, 0x00, 0x00, 0x8f, 0x51, 0xff, 0x3d, 0x01, 0x00, 0x00, 0x00,
  0xc7, 0x96, 0x06, 0xbe, 0x80, 0x02, 0x00, 0x00, 0x2f, 0x96, 0x85, 0x80,
  0x80, 0x48, 0x7a, 0x94, 0x7c, 0x86, 0x93, 0x83, 0x5e, 0x58, 0x65, 0xa8,
  0x86, 0x75, 0x84, 0xa1, 0x91, 0x66, 0xaa, 0x9b, 0x8b, 0x75, 0x91, 0x90,
  0x8f, 0x79, 0x86, 0x9c, 0xb0, 0x86, 0x7b, 0xb4, 0x90, 0x63, 0xd1, 0x9d,
  0x88, 0x8c, 0x87, 0x84, 0x9c, 0x3d, 0x79, 0xa7, 0xd6, 0xa0, 0x6e, 0xab,
  0x8a, 0x22, 0xb7, 0xa0, 0xad, 0xa3, 0x78, 0x90, 0x7a, 0x29, 0x87, 0x8a,
  0x2c, 0x80, 0x99, 0x8d, 0x96, 0x5a, 0x87, 0x72, 0x68, 0x74, 0x91, 0x74,
  0x6c, 0x8a, 0x85, 0x80, 0x90, 0x74, 0x96, 0xa9, 0x95, 0xa2, 0xa9, 0x76,
  0x97, 0x6e, 0x91, 0x7c, 0x91, 0xb8, 0x85, 0x76, 0xad, 0x7a, 0x8a, 0xc0,
  0x8d, 0xa8, 0xc0, 0x6f, 0x88, 0x85, 0x82, 0x72, 0x97, 0x66, 0x71, 0x73,
  0xca, 0x99, 0x7b, 0xa8, 0x80, 0x51, 0x95, 0x7a, 0xa2, 0x99, 0x71, 0x7b,
  0x6b, 0x4f, 0x78, 0x7f, 0x43, 0x82, 0xa7, 0x8f, 0xa2, 0x5f, 0x7c, 0x61,
  0x6a, 0x7f, 0x85, 0x6c, 0x75, 0x9f, 0x7b, 0x64, 0x7a, 0x72, 0xa2, 0xa7,
  0x98, 0xa9, 0xa5, 0x65, 0x86, 0x72, 0x82, 0x7e, 0x93, 0xa8, 0x8b, 0x62,
  0xa4, 0x7a, 0x8d, 0xc1, 0x86, 0x96, 0xad, 0x57, 0x81, 0x80, 0x75, 0x6a,
  0x89, 0x7c, 0x73, 0x60, 0xbb, 0x7e, 0x7d, 0x9a, 0x79, 0x78, 0x8a, 0x5f,
  0x97, 0x95, 0x6c, 0x70, 0x62, 0x75, 0x73, 0x69, 0x49, 0x7d, 0xc6, 0x8a,
  0xb6, 0x80, 0x82, 0x7d, 0x68, 0x88, 0x82, 0x64, 0x7e, 0xbc, 0x6f, 0x8b,
  0x79, 0x7b, 0xc0, 0xaa, 0xa4, 0x9b, 0xa7, 0x7a, 0x85, 0x81, 0x84, 0x7a,
  0x91, 0xbf, 0x85, 0x68, 0x99, 0x72, 0x9a, 0xb9, 0x88, 0x98, 0xa9, 0x79,
  0x95, 0x81, 0x72, 0x6f, 0x7c, 0x8f, 0x70, 0x86, 0xb2, 0x6a, 0x7b, 0x97,
  0x73, 0x83, 0x82, 0x78, 0xa7, 0x85, 0x5b, 0x66, 0x5a, 0x81, 0x65, 0x79,
  0x3e, 0x87, 0xe0, 0x88, 0xcc, 0x78, 0x75, 0x89, 0x6d, 0x95, 0x7a, 0x5c,
  0x7f, 0xb3, 0x7f, 0x7f, 0x7a, 0x77, 0xd9, 0xb2, 0xb1, 0x86, 0x95, 0x87,
  0x72, 0x98, 0x77, 0x71, 0x86, 0xb8, 0x89, 0x86, 0x90, 0x66, 0xa6, 0xc1,
  0x85, 0x7f, 0x8e, 0x85, 0x92, 0x7e, 0x61, 0x6e, 0x75, 0x93, 0x7a, 0x7a,
  0x92, 0x56, 0x88, 0x9b, 0x6f, 0x82, 0x70, 0x8d, 0xa8, 0x7a, 0x01, 0x66,
  0x53, 0x83, 0x70, 0x7a, 0x4b, 0xaa, 0xe5, 0x80, 0xd9, 0x63, 0x66, 0xa6,
  0x4a, 0xa0, 0x7b, 0x63, 0x82, 0x86, 0x81, 0x9c, 0x69, 0x80, 0xde, 0xb3,
  0xb1, 0x5c, 0x9e, 0x97, 0x74, 0x84, 0x71, 0x8b, 0x84, 0x8a, 0x8d, 0x84,
  0x85, 0x63, 0xa8, 0xb2, 0x7c, 0x4f, 0x8b, 0x98, 0x8b, 0x79, 0x51, 0x75,
  0x6f, 0x71, 0x87, 0x7f, 0x86, 0x40, 0x74, 0x9a, 0x5e, 0x75, 0x68, 0xa3,
  0x98, 0x5c, 0x44, 0x7a, 0x55, 0x82, 0x64, 0x81, 0x5c, 0xb7, 0xdf, 0x76,
  0xd4, 0x6b, 0x69, 0xa1, 0x5d, 0xb3, 0x6b, 0x75, 0x82, 0xa4, 0x7a, 0x96,
  0x6a, 0x8b, 0xff, 0xa1, 0xaf, 0x7e, 0x8a, 0xa8, 0x74, 0x8b, 0x68, 0x76,
  0x77, 0xbc, 0x8d, 0x8b, 0x75, 0x6b, 0xa0, 0xad, 0x7e, 0x75, 0x8b, 0x97,
  0x7e, 0x71, 0x51, 0x82, 0x74, 0x95, 0x86, 0x8e, 0x6d, 0x42, 0x79, 0x91,
  0x63, 0x89, 0x73, 0xa5, 0x9c, 0x5b, 0x43, 0x77, 0x59, 0x9a, 0x62, 0x85,
  0x69, 0xba, 0xc0, 0x64, 0xc6, 0x6d, 0x5c, 0x9c, 0x5b, 0xb3, 0x6f, 0x68,
  0x7f, 0x93, 0x7e, 0xa1, 0x66, 0x99, 0xc6, 0x78, 0xa8, 0x72, 0x90, 0x9d,
  0x69, 0x90, 0x6a, 0x77, 0x75, 0xb0, 0x95, 0x9e, 0x79, 0x70, 0x98, 0x80,
  0x7b, 0x77, 0x87, 0x91, 0x82, 0x79, 0x58, 0x8f, 0x70, 0x8b, 0x91, 0x91,
  0x78, 0x2f, 0x81, 0x7d, 0x69, 0x8c, 0x6b, 0x9d, 0x81, 0x5d, 0x58, 0x80,
  0x6c, 0x97, 0x64, 0x8d, 0x5b, 0xb5, 0xa7, 0x4c, 0xb0, 0x56, 0x4b, 0x7b,
  0x4e, 0xa8, 0x66, 0x4d, 0x77, 0xa3, 0x6f, 0x7d, 0x5b, 0x98, 0xab, 0x56,
  0x95, 0x74, 0x63, 0x75, 0x63, 0x88, 0x67, 0x4c, 0x6d, 0xb6, 0x78, 0x8c,
  0x60, 0x74, 0x90, 0x4c, 0x78, 0x68, 0x6b, 0x68, 0x5b, 0x74, 0x5d, 0x64,
  0x7f, 0x85, 0x71, 0x73, 0x59, 0x48, 0x8a, 0x5e, 0x71, 0x6b, 0x6f, 0x75,
  0x61, 0x5d, 0x70, 0x5c, 0x79, 0xa0, 0x4d, 0x87, 0x4b, 0xac, 0x91, 0x6f,
  0x9a, 0x57, 0x4b, 0x67, 0x44, 0xa2, 0x54, 0x56, 0x76, 0x76, 0x39, 0x5f,
  0x51, 0x94, 0x92, 0x60, 0x83, 0x5b, 0x5a, 0x6a, 0x3f, 0x8d, 0x5a, 0x64,
  0x71, 0x9f, 0x57, 0x6a, 0x5b, 0x6f, 0x86, 0x67, 0x76, 0x62, 0x58, 0x61,
  0x36, 0x81, 0x6b, 0x6a, 0x81, 0x6c, 0x69, 0x60, 0x60, 0x5c, 0x8c, 0x75,
  0x75, 0x58, 0x78, 0x65, 0x43, 0x5c, 0x86, 0x6e, 0x89, 0x83, 0x4b, 0x62,
  0x2e, 0xfe, 0xff, 0xff, 0x00, 0x00, 0x00, 0x03, 0x10, 0x00, 0x00, 0x00,
  0x05, 0x00, 0x00, 0x00, 0x1c, 0x00, 0x00, 0x00, 0x28, 0x00, 0x00, 0x00,
  0x04, 0x00, 0x00, 0x00, 0x01, 0x00, 0x00, 0x00, 0x31, 0x00, 0x00, 0x00,
  0x28, 0x00, 0x00, 0x00, 0x01, 0x00, 0x00, 0x00, 0x09, 0x00, 0x00, 0x00,
  0x52, 0x65, 0x73, 0x68, 0x61, 0x70, 0x65, 0x5f, 0x32, 0x00, 0x00, 0x00,
  0x24, 0xff, 0xff, 0xff, 0x2c, 0x00, 0x00, 0x00, 0x20, 0x00, 0x00, 0x00,
  0x14, 0x00, 0x00, 0x00, 0x04, 0x00, 0x00, 0x00, 0x01, 0x00, 0x00, 0x00,
  0x00, 0x00, 0x00, 0x00, 0x00, 0x00, 0x00, 0x00, 0x01, 0x00, 0x00, 0x00,
  0xc6, 0xd0, 0xd0, 0x3d, 0x01, 0x00, 0x00, 0x00, 0xf5, 0xff, 0xcf, 0x41,
  0x01, 0x00, 0x00, 0x00, 0x00, 0x00, 0x00, 0x00, 0xa2, 0xfe, 0xff, 0xff,
  0x00, 0x00, 0x00, 0x03, 0x10, 0x00, 0x00, 0x00, 0x04, 0x00, 0x00, 0x00,
  0x14, 0x00, 0x00, 0x00, 0x1c, 0x00, 0x00, 0x00, 0x02, 0x00, 0x00, 0x00,
  0x01, 0x00, 0x00, 0x00, 0x03, 0x00, 0x00, 0x00, 0x05, 0x00, 0x00, 0x00,
  0x61, 0x64, 0x64, 0x5f, 0x31, 0x00, 0x00, 0x00, 0x8c, 0xff, 0xff, 0xff,
  0x30, 0x00, 0x00, 0x00, 0x24, 0x00, 0x00, 0x00, 0x18, 0x00, 0x00, 0x00,
  0x04, 0x00, 0x00, 0x00, 0x01, 0x00, 0x00, 0x00, 0x75, 0x00, 0x00, 0x00,
  0x00, 0x00, 0x00, 0x00, 0x00, 0x00, 0x00, 0x00, 0x01, 0x00, 0x00, 0x00,
  0xc3, 0x0c, 0xb9, 0x3d, 0x01, 0x00, 0x00, 0x00, 0xc3, 0x81, 0x47, 0x41,
  0x01, 0x00, 0x00, 0x00, 0xaa, 0x25, 0x29, 0xc1, 0x0e, 0xff, 0xff, 0xff,
  0x00, 0x00, 0x00, 0x03, 0x10, 0x00, 0x00, 0x00, 0x03, 0x00, 0x00, 0x00,
  0x14, 0x00, 0x00, 0x00, 0x30, 0x00, 0x00, 0x00, 0x02, 0x00, 0x00, 0x00,
  0x01, 0x00, 0x00, 0x00, 0x03, 0x00, 0x00, 0x00, 0x0e, 0x00, 0x00, 0x00,
  0x6c, 0x61, 0x62, 0x65, 0x6c, 0x73, 0x5f, 0x73, 0x6f, 0x66, 0x74, 0x6d,
  0x61, 0x78, 0x00, 0x00, 0x0c, 0x00, 0x14, 0x00, 0x04, 0x00, 0x08, 0x00,
  0x0c, 0x00, 0x10, 0x00, 0x0c, 0x00, 0x00, 0x00, 0x2c, 0x00, 0x00, 0x00,
  0x20, 0x00, 0x00, 0x00, 0x14, 0x00, 0x00, 0x00, 0x04, 0x00, 0x00, 0x00,
  0x01, 0x00, 0x00, 0x00, 0x00, 0x00, 0x00, 0x00, 0x00, 0x00, 0x00, 0x00,
  0x01, 0x00, 0x00, 0x00, 0x00, 0x00, 0x80, 0x3b, 0x01, 0x00, 0x00, 0x00,
  0x00, 0x00, 0x7f, 0x3f, 0x01, 0x00, 0x00, 0x00, 0x00, 0x00, 0x00, 0x00,
  0x8a, 0xff, 0xff, 0xff, 0x00, 0x00, 0x00, 0x02, 0x10, 0x00, 0x00, 0x00,
  0x02, 0x00, 0x00, 0x00, 0x10, 0x00, 0x00, 0x00, 0x1c, 0x00, 0x00, 0x00,
  0x01, 0x00, 0x00, 0x00, 0x08, 0x00, 0x00, 0x00, 0x0b, 0x00, 0x00, 0x00,
  0x43, 0x6f, 0x6e, 0x76, 0x32, 0x44, 0x5f, 0x62, 0x69, 0x61, 0x73, 0x00,
  0x7c, 0xff, 0xff, 0xff, 0x14, 0x00, 0x00, 0x00, 0x04, 0x00, 0x00, 0x00,
  0x01, 0x00, 0x00, 0x00, 0x00, 0x00, 0x00, 0x00, 0x00, 0x00, 0x00, 0x00,
  0x01, 0x00, 0x00, 0x00, 0xb3, 0x98, 0xd7, 0x38, 0x20, 0x00, 0x00, 0x00,
  0xbc, 0xff, 0xff, 0xff, 0xc5, 0xff, 0xff, 0xff, 0x4d, 0xfd, 0xff, 0xff,
  0xec, 0xfe, 0xff, 0xff, 0x5b, 0xfd, 0xff, 0xff, 0x00, 0x00, 0x00, 0x00,
  0x5e, 0xff, 0xff, 0xff, 0x37, 0x00, 0x00, 0x00, 0x00, 0x00, 0x0e, 0x00,
  0x18, 0x00, 0x08, 0x00, 0x07, 0x00, 0x0c, 0x00, 0x10, 0x00, 0x14, 0x00,
  0x0e, 0x00, 0x00, 0x00, 0x00, 0x00, 0x00, 0x02, 0x10, 0x00, 0x00, 0x00,
  0x01, 0x00, 0x00, 0x00, 0x10, 0x00, 0x00, 0x00, 0x28, 0x00, 0x00, 0x00,
  0x01, 0x00, 0x00, 0x00, 0x03, 0x00, 0x00, 0x00, 0x0b, 0x00, 0x00, 0x00,
  0x4d, 0x61, 0x74, 0x4d, 0x75, 0x6c, 0x5f, 0x62, 0x69, 0x61, 0x73, 0x00,
  0x0c, 0x00, 0x0c, 0x00, 0x00, 0x00, 0x00, 0x00, 0x04, 0x00, 0x08, 0x00,
  0x0c, 0x00, 0x00, 0x00, 0x14, 0x00, 0x00, 0x00, 0x04, 0x00, 0x00, 0x00,
  0x01, 0x00, 0x00, 0x00, 0x00, 0x00, 0x00, 0x00, 0x00, 0x00, 0x00, 0x00,
  0x01, 0x00, 0x00, 0x00, 0x05, 0xaf, 0xeb, 0x37, 0x0c, 0x00, 0x00, 0x00,
  0x90, 0x03, 0x00, 0x00, 0x85, 0xff, 0xff, 0xff, 0x27, 0xfd, 0xff, 0xff,
  0x03, 0x00, 0x00, 0x00, 0xb4, 0x00, 0x00, 0x00, 0x5c, 0x00, 0x00, 0x00,
  0x04, 0x00, 0x00, 0x00, 0xc0, 0xff, 0xff, 0xff, 0x00, 0x00, 0x00, 0x09,
  0x02, 0x00, 0x00, 0x00, 0x10, 0x00, 0x00, 0x00, 0x14, 0x00, 0x00, 0x00,
  0x24, 0x00, 0x00, 0x00, 0x14, 0x00, 0x00, 0x00, 0x01, 0x00, 0x00, 0x00,
  0x04, 0x00, 0x00, 0x00, 0x01, 0x00, 0x00, 0x00, 0x05, 0x00, 0x00, 0x00,
  0x00, 0x00, 0x00, 0x00, 0x00, 0x00, 0x06, 0x00, 0x08, 0x00, 0x04, 0x00,
  0x06, 0x00, 0x00, 0x00, 0x00, 0x00, 0x80, 0x3f, 0x14, 0x00, 0x1c, 0x00,
  0x08, 0x00, 0x0c, 0x00, 0x10, 0x00, 0x07, 0x00, 0x14, 0x00, 0x00, 0x00,
  0x00, 0x00, 0x18, 0x00, 0x14, 0x00, 0x00, 0x00, 0x00, 0x00, 0x00, 0x08,
  0x01, 0x00, 0x00, 0x00, 0x10, 0x00, 0x00, 0x00, 0x1c, 0x00, 0x00, 0x00,
  0x28, 0x00, 0x00, 0x00, 0x1c, 0x00, 0x00, 0x00, 0x03, 0x00, 0x00, 0x00,
  0x02, 0x00, 0x00, 0x00, 0x07, 0x00, 0x00, 0x00, 0x01, 0x00, 0x00, 0x00,
  0x01, 0x00, 0x00, 0x00, 0x04, 0x00, 0x00, 0x00, 0x00, 0x00, 0x00, 0x00,
  0x04, 0x00, 0x04, 0x00, 0x04, 0x00, 0x00, 0x00, 0x14, 0x00, 0x18, 0x00,
  0x00, 0x00, 0x08, 0x00, 0x0c, 0x00, 0x07, 0x00, 0x10, 0x00, 0x00, 0x00,
  0x00, 0x00, 0x14, 0x00, 0x14, 0x00, 0x00, 0x00, 0x00, 0x00, 0x00, 0x02,
  0x10, 0x00, 0x00, 0x00, 0x1c, 0x00, 0x00, 0x00, 0x30, 0x00, 0x00, 0x00,
  0x1c, 0x00, 0x00, 0x00, 0x03, 0x00, 0x00, 0x00, 0x03, 0x00, 0x00, 0x00,
  0x06, 0x00, 0x00, 0x00, 0x00, 0x00, 0x00, 0x00, 0x01, 0x00, 0x00, 0x00,
  0x02, 0x00, 0x00, 0x00, 0x00, 0x00, 0x00, 0x00, 0x0c, 0x00, 0x10, 0x00,
  0x00, 0x00, 0x04, 0x00, 0x08, 0x00, 0x0c, 0x00, 0x0c, 0x00, 0x00, 0x00,
  0x02, 0x00, 0x00, 0x00, 0x02, 0x00, 0x00, 0x00, 0x08, 0x00, 0x00, 0x00,
  0x03, 0x00, 0x00, 0x00, 0x24, 0x00, 0x00, 0x00, 0x14, 0x00, 0x00, 0x00,
  0x04, 0x00, 0x00, 0x00, 0xfa, 0xff, 0xff, 0xff, 0x00, 0x19, 0x06, 0x00,
  0x06, 0x00, 0x05, 0x00, 0x06, 0x00, 0x00, 0x00, 0x00, 0x09, 0x06, 0x00,
  0x08, 0x00, 0x07, 0x00, 0x06, 0x00, 0x00, 0x00, 0x00, 0x00, 0x00, 0x04
};
const int g_tiny_conv_micro_features_model_data_len = 14280;
